[PAD]
[UNK]
[CLS]
[SEP]
[MASK]
!
"
#
$
%
&
'
(
)
*
+
,
-
.
/
0
1
2
3
4
5
6
7
8
9
:
;
<
=
>
?
@
[
\
]
^
_
`
a
b
c
d
e
f
g
h
i
j
k
l
m
n
o
p
q
r
s
t
u
v
w
x
y
z
{
|
}
~
¡
¢
£
¤
¥
¦
§
¨
©
ª
«
¬
®
¯
°
±
²
³
´
µ
¶
·
¸
¹
º
»
¼
½
¾
¿
×
ß
æ
ð
÷
ø
þ
đ
ı
ł
œ
ƒ
ƙ
ǝ
ɑ
ɓ
ɗ
ə
ɛ
ɪ
ʇ
ʊ
ʔ
ʻ
ʼ
ˆ
ˈ
ː
˘
˚
˜
α
β
γ
δ
ε
η
θ
ι
κ
λ
μ
ν
ξ
ο
π
ρ
ς
σ
τ
υ
φ
χ
ω
а
б
в
г
д
е
ж
з
и
к
л
м
н
о
п
р
с
т
у
ф
х
ц
ч
ш
щ
ъ
ы
ь
э
ю
я
є
ѕ
і
א
ב
ג
ד
ה
ו
ח
ט
י
כ
ל
ם
מ
ן
נ
ע
פ
צ
ק
ר
ש
ת
،
؟
ء
ا
ب
ة
ت
ث
ج
ح
خ
د
ذ
ر
ز
س
ش
ص
ض
ط
ظ
ع
غ
ـ
ف
ق
ك
ل
م
ن
ه
و
ى
ي
پ
چ
ژ
ک
گ
ی
क
द
न
र
व
ा
ि
ก
ค
ง
ด
ต
น
บ
ป
พ
ม
ย
ร
ล
ว
ศ
ส
ห
อ
ะ
า
เ
แ
ใ
ᄀ
ᄁ
ᄂ
ᄃ
ᄄ
ᄅ
ᄆ
ᄇ
ᄈ
ᄉ
ᄊ
ᄋ
ᄌ
ᄎ
ᄏ
ᄐ
ᄑ
ᄒ
ᅡ
ᅢ
ᅣ
ᅥ
ᅦ
ᅧ
ᅨ
ᅩ
ᅪ
ᅫ
ᅬ
ᅭ
ᅮ
ᅯ
ᅱ
ᅲ
ᅳ
ᅴ
ᅵ
ᆨ
ᆩ
ᆫ
ᆬ
ᆭ
ᆮ
ᆯ
ᆱ
ᆷ
ᆸ
ᆹ
ᆺ
ᆻ
ᆼ
ᆽ
ᆾ
ᇀ
ᇁ
ᇂ
‐
‑
‒
–
—
―
‘
’
‚
“
”
„
‟
†
•
…
′
″
›
‼
⁄
⁷
₂
₃
€
⃣
ℓ
℠
™
⅓
⅔
⅛
⅜
⅝
⅞
←
↑
→
↓
⇒
∆
∑
−
∙
√
∞
≥
≫
⎯
─
━
┻
═
╯
▀
▂
▃
▄
▅
▆
▇
█
▊
▌
▍
▎
▐
░
▓
■
□
▪
▲
△
▶
►
▼
◆
●
◘
◢
◣
◤
◥
☀
☁
☃
★
☆
☐
☑
☔
☕
☜
☝
☞
☮
☯
☺
♛
♡
♥
♦
♪
♫
⚓
⚠
⚡
⚪
⚾
⛄
✅
✈
✊
✋
✌
✒
✓
✔
✨
✩
✯
❄
❌
❤
❥
➠
➡
⠀
⭐
、
。
々
「
」
【
】
〓
あ
い
う
え
お
か
き
く
け
こ
さ
し
す
せ
そ
た
ち
っ
つ
て
と
な
に
ね
の
は
ひ
ふ
へ
ほ
ま
み
む
め
も
ゃ
や
よ
ら
り
る
れ
ろ
わ
を
ん
ア
ィ
イ
ウ
ェ
オ
カ
キ
ク
ケ
コ
サ
シ
ス
セ
ソ
タ
チ
ッ
ツ
テ
ト
ナ
ニ
ネ
ハ
ヒ
フ
ヘ
ホ
マ
メ
ャ
ュ
ョ
ラ
リ
ル
レ
ロ
ン
・
ー
ㅤ
一
三
上
下
不
中
了
事
二
京
人
今
他
以
件
会
你
使
例
価
係
保
個
入
全
公
共
其
内
出
分
別
利
到
前
力
加
動
化
十
午
協
原
収
取
口
可
司
合
同
名
含
告
呢
味
和
員
回
国
在
地
報
場
士
売
変
外
大
天
女
好
媒
子
安
定
家
対
小
就
市
常
年
広
延
式
引
当
彼
後
従
得
心
情
意
感
我
手
技
持
指
接
放
政
文
新
方
既
日
明
是
時
最
會
月
有
未
本
来
東
果
株
業
機
民
気
法
海
消
港
灣
点
為
無
物
特
状
現
理
生
用
白
的
目
相
示
社
第
節
細
経
続
総
者
能
自
臭
色
芝
荃
草
葉
衆
行
表
要
見
解
言
記
訳
詞
詳
語
説
護
身
通
連
遅
道
適
選
部
都
配
重
野
金
開
間
関
際
集
非
音
額
食
首
香
體
高
ﬁ
ﬂ
︵
！
（
）
，
／
＝
？
ａ
ｅ
ｈ
ｉ
ｎ
ｏ
ｒ
ｓ
ｔ
～
￼
🅔
🇦
🇧
🇨
🇪
🇫
🇬
🇭
🇲
🇷
🇸
🇹
🇺
🇽
🌀
🌈
🌊
🌍
🌎
🌞
🌟
🌲
🌴
🌸
🌹
🌺
🍀
🍁
🍆
🍇
🍊
🍌
🍍
🍎
🍒
🍓
🍔
🍕
🍗
🍞
🍟
🍦
🍫
🍭
🍰
🍴
🍸
🍹
🍺
🍼
🍾
🎀
🎁
🎂
🎃
🎄
🎅
🎈
🎉
🎊
🎤
🎥
🎨
🎬
🎶
🎼
🎾
🏀
🏅
🏆
🏈
🏻
🏼
🏽
🏾
🏿
🐍
🐚
🐝
🐟
🐠
🐬
🐯
🐱
🐴
🐶
🐻
🐽
👀
👁
👇
👉
👊
👋
👌
👍
👎
👏
👑
👙
👣
👦
👨
👩
👫
👮
👯
👰
👶
👸
👻
👽
💀
💁
💃
💄
💅
💋
💍
💎
💐
💓
💔
💕
💖
💗
💘
💙
💚
💛
💜
💝
💞
💣
💤
💥
💦
💧
💨
💩
💪
💫
💯
💰
📰
📷
📸
📺
🔑
🔥
🔫
🔴
🖕
🗣
🗻
😀
😁
😂
😃
😄
😅
😆
😇
😈
😉
😊
😋
😌
😍
😎
😏
😑
😒
😓
😔
😗
😘
😛
😜
😝
😞
😡
😢
😤
😥
😩
😪
😫
😬
😭
😰
😱
😳
😴
😷
😻
🙁
🙂
🙃
🙄
🙆
🙈
🙊
🙋
🙌
🙏
🚀
🚨
🚫
🚽
🤓
🤔
🤗
🤘
🦃
🦄
##r
##a
##y
##f
##o
##s
##i
##v
##e
##u
##d
##g
##t
##9
##c
##l
##w
##n
##5
##1
##0
##m
##p
##b
##h
##x
##z
##4
##3
##8
##6
##7
##2
##q
##j
##k
##د
##و
##ا
##ل
##ه
##θ
##³
##¤
##ᅩ
##ᄋ
##ᅲ
##ᄒ
##ᅡ
##ᆫ
##©
##¦
##¼
##ð
##¸
##½
##ʼ
##ᄀ
##ᅥ
##ᅳ
##ᆯ
##д
##а
##е
##т
##с
##я
##¥
##£
##ᆼ
##ᅵ
##л
##и
##گ
##ن
##🏼
##💥
##ر
##ي
##ح
##х
##ᄅ
##ᄏ
##ı
##м
##б
##ج
##س
##☺
##ت
##®
##€
##ك
##ｏ
##ｔ
##ᅧ
##¯
##ᅮ
##ᄂ
##ث
##р
##о
##у
##ш
##º
##н
##ю
##は
##з
##リ
##サ
##ー
##チ
##ط
##م
##ᅣ
##¨
##µ
##💪
##🇨
##🇦
##🍗
##ᅢ
##œ
##ł
##τ
##ο
##ν
##ß
##г
##п
##ᄉ
##ᆻ
##ᄃ
##˚
##ﬁ
##ع
##±
##°
##к
##ᆺ
##ː
##ə
##🐴
##🏻
##👏
##ц
##ø
##¾
##β
##★
##😂
##´
##×
##🎶
##🎉
##の
##ь
##😳
##ف
##マ
##ᄌ
##ᆸ
##ы
##в
##わ
##か
##っ
##た
##な
##ж
##щ
##™
##ᇂ
##¬
##²
##¢
##😜
##ص
##ب
##✈
##♛
##ش
##ة
##☀
##👙
##も
##く
##さ
##ん
##に
##ゃ
##い
##ᆷ
##ᄁ
##ᅦ
##ظ
##ƙ
##と
##き
##👶
##こ
##ち
##ら
##≫
##💗
##💝
##💖
##👍
##ی
##ᅱ
##ᅪ
##ᅬ
##ɗ
##ᅭ
##ᆨ
##す
##ι
##λ
##ф
##😍
##ᄆ
##ᅴ
##ᅨ
##ま
##し
##˜
##ƒ
##ª
##💙
##🍴
##ز
##י
##מ
##ת
##💔
##🐚
##⚓
##❤
##💚
##💛
##є
##ℓ
##η
##α
##ق
##і
##ב
##ר
##ו
##ן
##コ
##ト
##💜
##せ
##る
##☕
##■
##ᅯ
##æ
##κ
##れ
##ほ
##🇸
##ε
##¹
##😎
##😁
##😀
##ᄇ
##🏽
##💋
##👨
##ᆾ
##ч
##よ
##ひ
##ヒ
##ス
##フ
##ロ
##ハ
##イ
##タ
##ア
##シ
##て
##み
##ى
##ذ
##😛
##ʇ
##⁄
##♫
##😉
##خ
##🌴
##🌊
##🍊
##ᆮ
##ᄄ
##👎
##ъ
##◤
##غ
##ᇁ
##😋
##👑
##✨
##💁
##▓
##█
##ろ
##お
##ね
##ｒ
##ｎ
##ｅ
##∆
##🍫
##כ
##נ
##μ
##🙄
##ᆭ
##ᄊ
##け
##φ
##ɪ
##♥
##♪
##ा
##र
##▂
##💨
##đ
##🐶
##😊
##☔
##☁
##め
##ς
##ᄎ
##🇺
##ک
##オ
##ン
##ラ
##ร
##ม
##ต
##ย
##า
##ก
##ض
##💀
##♡
##℠
##つ
##🎁
##😄
##💓
##ˈ
##เ
##ล
##ป
##ด
##ว
##ᄐ
##😝
##😒
##ｓ
##🌞
##🌲
##💦
##り
##π
##◣
##🌎
##テ
##ソ
##🏾
##を
##─
##ネ
##ャ
##ク
##セ
##ィ
##🎃
##ρ
##υ
##σ
##🇹
##🇭
##💃
##→
##ｈ
##☝
##🙌
##キ
##ュ
##😔
##🇧
##🇷
##э
##ء
##γ
##⚾
##🔴
##⚪
##ʻ
##👌
##ד
##چ
##⅓
##🎀
##ᆱ
##そ
##✌
##😱
##🐯
##🙏
##ɛ
##−
##ａ
##や
##√
##↑
##👽
##う
##👊
##🌟
##⚡
##▀
##⅔
##📷
##א
##ח
##😘
##🎂
##ל
##ה
##あ
##ル
##ヘ
##ニ
##🌹
##😭
##ם
##ـ
##😅
##😡
##🏿
##δ
##🎨
##ﬂ
##💰
##🍀
##🤘
##😫
##😩
##ט
##🚨
##🦄
##ะ
##ห
##ง
##ค
##น
##ส
##บ
##ふ
##👩
##🗻
##🐟
##🐠
##⅛
##へ
##🤗
##👣
##💅
##💧
##ᄑ
##😑
##💄
##🎊
##ג
##🍕
##ʊ
##อ
##ใ
##⅝
##ッ
##ケ
##🎅
##🎄
##🎤
##🍾
##🐬
##˘
##🍍
##✔
##レ
##ᆽ
##💕
##🌈
##👋
##ᇀ
##ק
##💫
##⃣
##ナ
##🍭
##👁
##🐻
##❥
##ツ
##カ
##☯
##פ
##ע
##✊
##🇫
##😓
##💯
##💎
##ョ
##ѕ
##😷
##न
##▍
##▼
##⠀
##◢
##🖕
##ホ
##メ
##ェ
##∙
##🏆
##💤
##∞
##ウ
##🚽
##▆
##▇
##▅
##🔫
##🎥
##🎬
##🎼
##⅞
##ש
##～
##🍼
##þ
##👸
##🏀
##🌀
##🚀
##🌺
##👉
##👦
##💐
##❄
##☃
##⛄
##ㅤ
##💣
##⅜
##⁷
##🇲
##↓
##🐍
##🍟
##☜
##😻
##😤
##😆
##ɑ
##►
##😬
##☞
##🤓
##🚫
##🔥
##ᆬ
##￼
##÷
##😰
##💩
##😴
##🤔
##🌍
##✯
##😃
##💞
##🌸
##🎈
##🇽
##🐱
##🐝
##💘
##▊
##😢
##⭐
##😈
##😇
##₂
##🏈
##ि
##🙈
##🍓
##🍌
##ｉ
##🙋
##แ
##😏
##🍆
##➡
##🙂
##✅
##द
##◥
##▃
##🙃
##ژ
##⚠
##ω
##♦
##क
##▌
##▐
##✓
##△
##🙊
##🙆
##📺
##پ
##🇬
##ᆩ
##צ
##👯
##👇
##😥
##😞
##●
##▲
##🍰
##🍦
##👰
##🍔
##ǝ
##พ
##🇪
##₃
##ξ
##ᆹ
##🦃
##🎾
##👫
##👮
##ศ
##χ
##🍇
##🏅
##ʔ
##📸
##═
##＝
##ɓ
##🍒
##💍
##🙁
##😪
##👀
##🍞
##〓
##🍎
##⇒
##▎
##✋
##━
##┻
##░
##ᅫ
##व
##⎯
##ˆ
##☮
##☆
##▪
##🍸
##🍺
##👻
##🅔
##え
##🐽
##ᄈ
##🍹
##😗
##❌
##▄
##🍁
##╯
##□
##✩
##む
th
##er
the
##in
##on
##at
##en
##es
##or
##ed
##an
##ing
##ar
an
in
to
##ou
##al
##it
of
##is
##as
and
##ic
##om
##re
##il
##ion
##ent
##el
##id
##et
##ec
##st
##ot
##ay
wh
on
##ut
##le
st
for
that
##ac
##ow
##ve
##ad
##ur
##ly
##ol
re
##am
is
it
##ig
be
##ers
pr
##ir
he
##im
##se
##ith
sh
as
##ter
##ver
al
with
##ch
##th
##ill
was
##ation
at
##ld
ch
fr
com
##est
ne
con
##op
##ere
##ce
you
##ess
##ul
ha
sa
##ag
we
##em
##nd
tr
##ak
su
##os
##igh
##ts
##ate
##and
##od
##us
##pp
##ear
his
##iv
are
said
##ain
##ore
by
##oc
de
##ment
but
not
ex
have
se
##ould
from
ab
##if
or
##ost
##un
this
##ity
##art
sp
go
##ect
##ies
##um
##ort
has
##all
##ab
##ist
le
##ive
they
ac
20
##ust
##out
who
##ok
##gh
##ack
wor
##ast
##ight
pl
##ud
un
##ant
##ial
##ome
##ap
new
##ard
##ie
##end
ar
br
##ell
##ik
year
##our
do
will
all
pro
##ich
cl
##her
can
out
more
af
rep
am
off
ad
en
##ge
about
gr
up
their
##ib
##ough
##ans
one
##ice
##tr
##one
##uc
her
she
##ue
comp
##ong
##ally
so
me
had
##ound
##ip
##oun
##ia
cr
man
##ine
##ays
ag
##ub
pe
##ous
inc
##age
tim
##ame
##ook
mar
rec
would
lik
there
when
im
res
##ions
no
per
##day
were
dr
##ated
##og
##ide
us
##ake
##ber
tw
been
##au
##own
what
exp
ev
##ure
if
##iz
which
pol
its
than
##ople
people
app
after
int
##ff
some
201
##ary
##act
##ind
##ks
car
##pt
##ace
##ely
##av
dis
##ose
##ther
##ence
##ign
##ian
##ach
over
just
fe
bec
like
bl
##qu
##ord
get
ph
##ire
sc
fir
part
##lic
qu
##ass
##ail
##ors
##ish
##ob
##ite
##00
kn
##ident
pres
##so
##ile
time
##aw
my
str
also
##oll
##ance
how
##ov
##ond
##ens
inter
##ick
acc
##ep
them
##ations
work
co
other
te
##ree
##ates
##ical
dec
##int
##hing
##ings
any
##able
##ink
mon
two
mr
your
##gr
first
ever
##orm
into
em
comm
rel
him
##itt
##ase
ob
pre
ser
coun
##lud
##ild
fl
could
##amp
##oy
sec
el
##ied
##ents
19
##ade
##reat
may
##ause
now
##ct
##ublic
don
##ey
##eric
most
##oss
##ory
includ
years
##ult
act
ind
##ict
##ition
last
##ning
back
inv
americ
did
##ang
our
##ood
##ry
##old
att
##man
200
president
play
cons
##anc
imp
even
show
post
##are
op
wr
##ek
par
ro
und
bet
##ious
##illion
thr
cont
because
po
##ock
says
##wn
only
##pl
##ove
##urn
bu
##fer
hel
mu
des
##ery
every
##ty
sch
call
##ork
say
##other
again
compan
world
fin
report
high
##iss
##ra
##ater
many
##enc
under
ear
##ath
##ments
look
##ft
##form
sm
where
##vern
know
ass
contr
##fore
gu
down
make
##ton
govern
##ug
bus
##ational
dem
##ama
##hn
think
state
add
jo
rem
before
##ons
offic
those
##oup
long
##ting
##uring
##atch
def
while
want
##sp
sy
##ife
phot
way
##ily
min
##vel
##oth
then
day
med
col
##we
lead
fam
##ited
##uct
ed
##aking
##als
##orn
##ues
##iew
law
need
week
mark
much
own
ve
##ating
war
##ful
##ise
##ouse
##mer
char
see
end
sur
##ets
supp
bel
cour
##elf
through
well
these
##ump
should
##ince
good
gen
cent
##ities
##les
bo
sen
still
##ash
reg
inst
##ro
##ank
##az
##con
old
##ax
ter
stud
##eral
made
big
going
##ason
aw
does
##ier
##air
wom
being
##ather
help
three
ret
10
##alk
##cent
though
obama
##ics
id
##erson
countr
month
##ection
##ix
##ual
##ble
##pr
##ert
york
run
##ased
##ool
ke
government
invest
##son
000
start
##ah
during
very
told
found
##cc
##ives
news
##ower
##led
city
take
sl
right
home
win
here
house
##ected
million
##its
##omet
##orts
##und
serv
cap
sub
##io
##xt
aut
polit
team
since
##ope
##get
child
company
against
dif
##olog
##iness
##ists
mem
##ible
##br
##gan
bar
##alth
read
ins
##ivers
public
camp
##ote
percent
group
real
##ull
art
##ement
gl
head
prod
somet
##ms
plan
school
##ph
such
dep
##ying
##uss
##ven
air
ann
##rat
##land
republic
resp
##ange
mil
##ently
##ular
american
another
##ner
set
##hip
##ording
##per
put
life
##att
##oot
hand
dire
prov
sign
##ged
far
##ific
care
cle
top
around
disc
eff
business
four
spe
great
##atur
person
direct
##gest
sim
official
##iel
police
##ene
lar
according
happ
##ward
too
##ages
##ually
econ
leg
econom
##ision
##ines
##ger
both
country
##ave
star
##ern
##ri
true
##istr
fil
##ices
##ital
stre
##ants
##urr
##ility
##ative
best
game
det
##ale
job
adv
same
support
soc
##ina
next
ask
really
ma
national
##ween
near
family
pay
states
health
##der
between
##ling
##earch
##up
got
##akes
washing
cal
open
##urs
nor
conf
##read
del
##line
##iving
iss
##ames
mov
never
cor
##fl
find
red
quest
ste
second
##oney
##ime
few
pass
##ren
##ollow
trump
num
mus
including
face
chr
let
##ief
progr
mod
democ
##ee
use
trans
intern
follow
lot
watch
cre
stat
##enn
turn
conc
fed
prot
bre
prof
##bers
today
seem
sou
##view
##ecut
women
spec
might
night
come
differ
##ism
times
former
gre
rest
fact
called
##uck
washington
har
why
market
sw
##med
opp
hard
allow
##ress
sk
point
pat
deb
prop
##ends
##ittle
##ency
john
##ele
##erv
##ior
##ember
##ount
ra
##let
adm
keep
##ody
something
little
##ins
contin
loc
less
left
##ott
appear
##ys
stand
white
tax
##cr
##ead
##ered
arr
money
##ention
kill
fri
##ric
##lish
democrat
##augh
##ience
##aign
tec
##ploy
campaign
mor
11
feel
exper
miss
##ures
##ced
eng
12
power
##ew
##ized
united
##ont
book
belie
didn
vide
##ving
court
auth
party
sal
##thing
comment
##erg
things
##ights
photo
commun
##ize
attack
univers
cost
pop
better
##ined
press
##osed
maj
##ution
##iet
15
est
children
##iver
##stem
season
##ned
met
case
ir
beh
##ically
la
##ield
expl
build
##ness
##co
youn
mid
ap
##ark
past
requ
days
pa
bill
##ether
proble
system
ll
##ever
##aff
coll
grow
##ards
talk
##ney
deal
without
30
##iday
program
used
##ised
men
##ending
##ient
place
##ially
vot
each
rele
five
##ret
##ves
vis
##ten
sever
major
black
##ived
incre
hist
##iting
av
##ession
secur
##ird
tell
hal
##nes
fund
val
won
##ury
hum
prom
small
##ains
##ways
##res
conv
eur
hour
interest
political
##ained
##app
##ably
clint
##ley
cand
##red
##els
wed
##cept
author
story
later
##eng
##velop
milit
##ved
cond
poss
##ising
whether
sing
manag
##iam
polic
among
aff
##ute
##self
##ared
fac
##ired
##ects
##ately
##itter
unt
free
sn
##ering
ide
san
clinton
##une
eas
##eck
least
##used
develop
officials
##ony
##wh
took
##tern
net
doc
away
record
list
federal
##ces
##artment
came
view
move
##aim
##over
media
prev
curr
##ject
cut
terr
test
##yp
##ense
making
republican
14
##gin
clear
mom
##oad
##ike
early
class
social
##aph
mich
oper
##str
based
billion
##iven
security
doesn
##itch
##ands
pos
ago
##unch
number
months
always
south
vict
techn
yet
inform
##less
until
employ
##ians
##opp
once
ca
mean
colle
bad
university
##atter
import
rece
consid
kind
super
##ready
partic
research
north
already
##ister
meet
line
##ended
##uary
six
candid
change
18
young
office
##ipp
death
##ened
##ator
2014
jan
crit
thing
sol
2010
##ral
vi
several
video
##ball
america
##bs
##ided
hold
friday
##ought
different
ext
companies
##book
center
##aring
tues
##side
christ
ge
foot
bas
sex
spok
perform
proc
##ox
execut
went
tuesday
organ
il
##ush
love
##osp
##ees
bank
comments
sug
financ
enough
trad
##ued
congr
fall
##ogr
produc
sund
conn
##ison
##acy
recent
ms
calif
russ
##ones
must
main
question
priv
monday
investig
##ology
chang
design
lib
sit
fight
street
elect
exc
become
ent
cover
often
##ann
##ges
room
##ints
half
asked
give
##ified
25
return
##ibut
claim
##thers
##ides
los
ang
reported
##way
jud
##ett
##uction
199
##crib
announ
pot
kid
members
ref
dav
short
##ald
film
order
thurs
twitter
ju
europe
##aining
posted
##by
working
ris
ant
dev
##ertain
thought
thursday
##ru
##ata
sunday
indust
##ases
##aps
##aper
food
seen
along
known
others
wednes
local
##irl
mc
military
hot
likely
however
wednesday
getting
##com
##rem
rom
arg
service
##ech
##oci
having
level
viol
full
important
word
name
chief
step
live
hol
march
##ured
associ
admin
sure
sum
doing
department
acr
succ
##icle
##ots
sent
gener
##inc
fire
tou
water
##be
leaders
##itor
trying
park
event
third
13
##ensive
information
saying
west
rev
cred
low
alm
simp
pub
cult
fun
##ops
##aken
director
cust
##ars
fail
##urch
equ
saf
2015
distr
##use
across
##ted
brit
fre
side
hill
lo
##iter
suggest
fut
##aly
wall
50
16
##inal
mass
history
strong
interview
hit
ban
lab
cho
looking
policy
general
dou
mess
walk
girl
##ats
success
es
believe
##ature
woman
##ively
##sel
form
##ium
music
lear
fal
international
share
##ators
control
trav
able
##ories
##ateg
include
sept
earl
series
human
almost
pal
china
sell
compet
facebook
data
enter
hom
vers
done
vir
2008
mag
##stand
oct
invol
jour
lost
secret
area
2016
2012
tal
certain
late
sour
makes
gun
statement
foc
photos
behind
##ograph
##idence
pm
course
wrote
##iously
close
financial
##por
wa
rich
##sh
##port
ball
##arter
glob
port
17
added
##omm
given
americans
drug
committ
lim
2009
susp
##erm
check
##nn
##ential
##ination
##istration
che
rul
reach
taking
special
nation
imm
##ler
##work
cam
election
problem
friends
images
esp
games
using
##0s
actually
##ring
pet
##my
satur
##ored
##lex
prob
##que
boy
future
june
##imes
process
term
isn
fav
100
##par
inf
earlier
buy
toget
aug
##off
together
presidential
final
lat
##igr
contribut
comes
##ows
issue
pain
##ults
publish
bene
dead
custom
##ane
cele
tur
apr
someone
capital
opt
##ences
nearly
typ
hours
##ither
##play
mill
land
tar
##oved
break
concern
civ
##ival
saturday
consum
div
false
outside
##amed
angel
threat
congress
wee
californ
##sw
broad
franc
started
chall
taken
wanted
front
staff
bur
quarter
apple
occ
decision
college
agre
gold
economic
host
##ortun
anything
complet
online
large
syr
fore
nothing
##ael
july
republicans
california
hope
weeks
21
administration
mother
instead
began
economy
students
impr
april
personal
celebr
shoot
killed
repres
den
non
pick
stay
community
##dle
##oon
whose
##ference
wind
bring
morning
inj
##uce
coming
relations
geor
##nal
2013
shar
##oke
rights
ple
son
led
vote
david
squ
recently
fig
##ape
ur
ira
ey
alle
reason
industry
##ances
tv
mer
##lin
hosp
price
activ
24
yes
dom
effect
##ission
rad
scre
##body
bud
jobs
##utes
2011
building
civil
##ening
field
shows
##ization
sold
shot
pict
particular
benef
quick
educ
##bc
town
everyone
speak
key
democratic
coup
##itions
##ague
##ails
try
##ift
##selves
expected
himself
40
iraq
desp
stop
##aged
jack
rather
##ench
travel
##rael
clos
##ounds
mind
coach
conserv
idea
father
fur
##ried
##back
##ming
israel
oil
running
else
study
##head
##ugg
risk
site
protest
rob
##ilar
##uge
wife
possible
##uff
##aster
nom
private
mot
players
executive
light
friend
probably
everything
famil
198
##esh
neg
board
sil
aud
tre
aver
##go
journal
foreign
##yle
discuss
tom
spokes
heart
page
je
##bert
rock
##erman
ident
hop
sand
##imate
grand
##itive
##owd
paul
##hood
michael
examp
##iff
mur
treat
answ
sales
phil
##itional
space
wasn
##orr
poll
search
deep
tot
held
points
bush
##elt
sports
age
understand
within
##istan
seems
expect
infl
senate
race
##uel
##ites
experience
track
released
phone
road
goog
iran
terror
er
##ips
appr
means
pret
became
22
technology
##ault
fell
role
parents
fox
describ
##ne
##aces
questions
pract
decl
##unt
body
green
orig
middle
francis
issues
vol
credit
global
##empt
ce
##cer
east
subs
##ality
##ument
moment
force
##oph
kids
##oud
tex
reports
##umb
##lam
##ades
plans
dam
workers
matter
despite
enc
begin
##berg
##ims
##asing
##ergy
bit
saw
doll
self
##atic
soon
surpr
base
##iec
##ners
career
ep
google
appro
current
result
##ighb
review
##ulation
neighb
const
##ients
alth
services
##rupt
##for
##ondon
william
var
although
espec
following
##ented
##ional
similar
##iod
##iety
##ished
lives
especially
##tain
bal
london
agency
insur
version
pan
meas
respons
continue
toward
cur
##attle
announced
dre
abuse
23
image
strateg
fans
tele
offer
anyone
##ging
creat
##yn
angeles
##aut
##aughter
candidate
reb
aust
visit
uk
couple
leader
##uation
arrest
living
hon
##dd
init
display
legal
defense
democrats
died
related
voters
instit
period
##ibility
access
played
minutes
energy
comb
mo
example
favor
##irc
romney
prim
##ams
rate
movie
medical
##mp
hospital
january
wrong
##aur
##fic
september
cnn
countries
sense
turned
launch
summer
##oid
inside
article
chair
single
popular
playing
bab
##ham
action
leave
##ai
recomm
mart
afric
mal
##wood
fear
##ron
##af
loss
islam
##ode
growth
themselves
suff
##erc
##ivid
pros
tit
##oint
##ilt
needs
mis
brown
##mber
opportun
focus
getty
##xic
fair
env
nove
whole
november
##itting
##akers
##gn
laws
##sy
ground
either
##bo
avail
debate
network
upd
##atives
hus
##opped
higher
sun
worked
gave
##ength
analy
seven
account
champ
consider
intr
published
pack
dist
##ada
diffic
##haps
difficult
stock
cris
mcc
worth
spending
circ
committee
##aced
2007
flor
mob
entire
minister
perhaps
dig
union
197
groups
project
conference
paper
league
problems
insp
address
##ober
##thern
immigr
camer
##ability
aren
average
extr
august
##ana
latest
spent
hall
cit
##ify
central
october
##room
draw
maybe
tour
county
##ida
works
further
dest
abs
wants
doct
internet
mult
relationship
gar
tem
##eal
eg
##omb
heav
pred
lower
##band
##overs
26
meeting
club
round
individ
##ores
28
german
27
approach
sat
respond
oh
editor
island
repl
eight
500
##lear
card
ham
thous
signific
speech
##oo
cast
ill
pretty
scr
##aught
##medi
available
ele
##ex
biggest
compl
relig
##ung
##where
church
ways
touch
james
potential
longer
##ental
evidence
##ecess
##eth
swe
##ender
restaur
##fully
hear
position
bow
telev
leav
bed
chance
##istic
##iding
prices
match
forward
justice
##vers
##ule
culture
francisco
##uit
british
mad
ath
represent
wond
firm
trade
sometimes
senior
piec
et
officer
##yan
##eter
##ke
medic
deliver
##anger
##isl
takes
resident
oppos
song
##aily
inn
vo
gets
immedi
##essional
intell
words
judge
received
happened
##yc
##acter
bir
web
unl
afgh
obs
common
critic
budget
ben
flo
create
appears
needed
paid
texas
provide
daily
seek
december
arch
smart
##ster
anti
hous
cases
##aker
king
cop
lawy
crowd
express
wood
donald
george
##orney
education
legisl
source
bey
##ining
simply
brand
attorney
employees
god
dog
prem
tried
photograph
##rect
weather
target
emb
politics
european
goes
significant
forces
protect
push
##ago
request
authorities
product
##phone
commission
proper
demand
blog
##ural
attention
football
##venue
febr
prison
##ky
##action
##iron
daughter
gas
february
accept
heard
196
attacks
growing
felt
knew
##ety
trip
reve
pers
involved
member
itself
looks
##ises
strugg
comput
afghan
unf
russia
remember
mexic
model
cann
guy
##isc
##ude
box
surve
performance
roll
dan
debt
talking
secretary
date
corpor
crisis
##ask
phys
max
rac
29
prep
calls
capt
amaz
increase
hands
##ino
husband
##apan
ran
ver
helped
player
environ
chic
##ogn
marri
television
wal
easy
di
ul
japan
sle
veh
bost
teach
cross
challen
total
showed
officers
##oring
serious
unc
florida
##ady
extrem
soft
##epend
store
users
includes
income
poor
costs
##asons
prosecut
scient
brought
cook
surv
perf
families
sel
##izing
##ij
built
quite
##oom
##edy
independ
bord
fast
weekend
investigation
finally
##post
perm
results
rates
##na
investors
fash
quickly
##ille
goal
boston
above
hillary
refer
hotel
square
thousands
reform
35
##itz
##cement
doub
stage
blood
hund
pen
pur
safety
attr
fill
##ocks
effort
emerg
norm
##orter
release
##vas
fem
lack
sound
hundred
environment
violence
message
ahead
guard
fashion
events
leading
fort
schools
anim
lou
decided
district
wild
hur
mic
##inese
thanks
born
huge
##olution
attempt
##iers
manager
webs
##onse
associated
kore
miles
chinese
determ
rules
##rew
remains
candidates
exact
assist
confir
becom
gop
thom
blue
customers
stories
french
wash
citiz
drive
corn
regul
development
beat
##uz
situation
##cil
lif
##of
bott
profess
##lus
##ois
spot
trial
response
largest
ok
color
##ps
changes
happen
style
##vert
insurance
##ective
governor
##eed
##down
slow
##ban
spokesman
prime
created
##bur
dress
exist
##uth
annual
##idge
block
numbers
happy
character
beaut
value
analyst
natur
##uses
grad
##joy
answer
##kn
sett
convers
lang
appeared
imag
conservative
##atures
due
increasing
##imin
giving
century
student
##itten
##iant
tough
syria
gone
31
contract
beyond
60
shooting
particularly
##ipt
que
cup
majority
discover
log
##inks
twe
##ider
remain
matt
fa
##ma
canvas
##ablish
efforts
mobile
disapp
looked
cause
##ware
cash
##aft
ho
engine
opin
winning
content
histor
amb
weap
lu
via
musl
bag
bid
establish
decades
enjoy
chicago
murder
earth
##ford
influ
os
smith
carol
birth
baby
sched
##ceed
earn
trou
##hold
##ny
teams
carry
ber
appar
terms
marriage
seemed
print
necess
##oes
books
regular
##estern
##mb
charges
##ese
ready
modern
perfect
disp
bi
allowed
present
oly
##icks
moved
peace
cell
##umn
organization
alleged
labor
##rel
russian
feet
certainly
intellig
impact
##itted
olymp
reveal
##oti
starting
##ara
included
neighbor
separ
##uing
bay
products
link
investment
brook
battle
deg
specific
opportunity
##ches
recogn
##ological
cars
robert
nuc
van
section
tick
vill
##aging
recover
wouldn
cancer
##arr
banks
named
scene
watcher
##ibly
couldn
trust
##ume
mount
##jects
writer
extra
crime
constit
jew
mater
nfl
fly
##ems
cannot
overs
##rain
##opping
email
##wor
##unk
stra
areas
raised
instance
gall
senator
pitch
frank
austral
princ
avoid
magaz
##eless
muse
below
##lement
nuclear
letter
danger
##tim
##ba
45
note
##ston
##iction
spring
jim
mayor
##fort
brother
johnson
arm
pressure
incident
markets
shut
##iest
##ilities
##yr
amount
propos
army
choice
ut
rout
doz
ess
##icted
previous
particip
vice
langu
figure
negoti
nine
##erve
obv
described
exch
correct
sens
bond
##atory
management
##ipped
training
beach
fat
claims
council
##ounts
##aming
thinking
fix
mix
gay
esc
region
sort
station
reality
##ona
chris
virgin
newsp
moving
professor
vac
##ification
indic
clean
rub
commenter
##isions
##come
##arily
##hib
tech
##itness
dark
mel
##te
##iar
scott
rise
din
##vin
require
recall
mos
sup
##ique
screen
estim
ceo
ones
##iring
failed
dise
science
continued
door
alone
communic
refl
du
##leg
bomb
##yl
museum
changed
spend
primary
write
flight
freed
rose
alex
williams
ach
details
micr
politic
##eration
opening
##ev
coast
##ires
france
holly
##erry
##ding
##oyal
hun
chairman
introd
website
contact
victory
##ously
ryan
##lines
purch
original
destr
##owing
teen
##ension
hy
repe
mail
cub
partners
##rec
##bi
##inated
##uments
speed
##la
beg
sexual
improve
ability
production
learn
##bed
currently
mike
experts
##anch
##ully
##reg
demon
programs
fourth
tab
##ris
society
storm
##asc
ended
tro
respect
safe
bull
usa
##icles
immediately
send
wonder
picture
sant
paris
eye
prior
counter
regard
##den
save
nav
except
##field
progress
exactly
##lyn
challenge
##ament
traff
stars
homes
##uced
jump
enfor
##ustr
reporters
##he
constr
##han
patients
ten
rap
hundreds
wel
behav
penn
offered
western
defin
owners
cat
train
sad
veter
material
residents
die
crash
benefits
considered
##ville
millions
mist
louis
stuff
turk
natural
##ander
49
##enced
mort
mach
autom
leadership
decade
written
spr
##lant
encour
aid
##ya
##time
connect
calling
suprem
fresh
border
##ado
intelligence
##uf
illeg
wait
surr
restaurant
rod
##dr
traditional
wil
floor
simple
kept
##cast
knows
eth
raise
association
##da
magazine
##ypt
adding
range
catch
whom
islamic
athlet
crim
document
leaving
voice
indian
radio
fan
band
charge
charged
column
advis
guys
eventually
acqu
psy
passed
##adem
piece
##ota
emot
##ki
opened
videos
hollywood
nov
victims
agreement
businesses
sam
movement
england
##apped
##while
fighting
##aries
##ha
afghanistan
title
##tt
sect
size
##ements
##uters
##ancy
attend
retail
expand
arrested
martin
psych
##iple
cab
language
##light
brief
bowl
agreed
citizens
prec
straight
academ
##enty
##ocked
brok
snow
joe
ens
##ries
mary
dollars
supporters
achie
strategy
girls
##iny
drink
speaking
addition
followed
worst
richard
carolina
ip
mac
ton
advert
coverage
jon
revenue
##airs
offensive
washpost
taxes
talks
##olf
##eted
runs
digital
pul
individual
award
neighborhood
jackson
audience
##entially
conduct
appeal
driving
mexico
fine
computer
headline
forced
##oles
##oted
arab
plat
learned
##iled
willing
minor
ign
##orse
ny
practice
##elly
difference
britain
compared
writing
sav
##tress
prevent
path
bob
fif
count
designed
parts
freedom
spir
lay
records
criminal
2000
##iling
cities
fest
sleep
served
usually
thank
selling
challeng
places
estate
shares
please
afford
kim
treatment
nbc
quality
female
mention
##uty
kick
pull
accused
cas
nations
##encies
convention
haven
throughout
watching
mostly
##ills
agree
gard
actor
plus
##cript
owner
egypt
reached
cuts
meant
gather
rank
##hen
concerns
champions
##iation
brain
supreme
ol
southern
property
cool
##using
killing
lose
lines
##ez
click
beginning
jeff
meanwhile
pac
immigration
powerful
32
impress
##pan
consumers
pak
pictures
consist
spoke
iphone
wid
rule
funds
hers
experi
##wide
clearly
subst
jones
2006
alb
standard
##ground
population
virginia
climate
minute
##ica
opposition
subscrib
wide
guest
##ols
##kins
sources
levels
religious
rh
favorite
rid
atlant
double
reuters
offers
hearing
##ction
eat
spread
african
disease
##ersey
##etic
charl
ice
##ters
##utions
##ste
##amb
li
river
##ruct
advoc
tells
tel
subject
##mas
type
signed
ord
controvers
seeing
##atever
epis
##to
ukrain
sea
mission
whatever
heavy
wealth
weight
jersey
##alink
##gers
truth
##elling
asking
noted
anal
gov
mand
founder
lawyer
##izz
rough
tor
successful
showing
##ipl
mat
pakistan
strength
attract
accom
conflic
##inger
closed
kenn
##estic
gives
##essed
reading
awards
cold
consumer
hair
##know
eyes
coal
policies
missing
##anced
glass
weapons
barack
lov
##iance
parties
retire
drugs
patr
germany
complete
overall
manh
airport
##house
canada
partner
##ufact
provided
measure
survey
aftern
##owers
##oz
housing
##fe
manufact
doctors
spl
##makers
36
sport
nomine
resour
fle
reporter
newspaper
##sequ
##ios
##knowled
purp
##oman
70
ups
acknowled
worse
updated
##iced
##pper
kar
married
required
300
additional
195
##ounded
profit
features
trib
telling
researchers
drop
mir
table
commerc
##ishing
reasons
applic
##ette
bern
flag
corporate
fuel
older
afternoon
believed
complex
surf
text
feeling
edition
##oft
interesting
condition
sale
##ola
paying
contributor
##los
ug
##itors
artist
##aked
recommended
constitution
comfort
increased
plane
exchange
planned
declined
ariz
names
##arian
steve
cath
organiz
actress
complain
opinion
syrian
myself
previously
scen
liter
burn
independent
ohio
witness
##iles
software
assault
80
faith
sem
ideas
thomas
##attan
hasn
highest
putting
bloom
sar
feed
meaning
christian
##men
foundation
famous
##uries
english
advant
luck
fellow
era
##ortion
uns
holding
troops
33
##fri
caused
positive
institute
pair
plays
nice
entertain
##ca
##astic
##lor
##ushing
novel
##mar
limited
entr
repr
commercial
der
wearing
returned
##eg
strik
contributed
professional
korea
collect
schedul
traffic
##oking
lee
##raft
seeking
##ena
anth
##others
##ologist
generation
india
africa
supposed
winter
operations
competition
gal
none
rat
bought
bask
lived
las
continues
systems
upon
completely
greater
larg
dism
collection
seat
##acts
standing
farm
altern
##cing
##oper
##iful
##inary
grant
##ero
evening
arrived
##opri
contest
theater
qual
christmas
join
##iment
demonstr
driver
caught
##kin
serve
joined
emergency
studies
chann
conditions
##ram
tow
peter
platform
views
whe
manhattan
jose
conversation
90
largely
happens
yourself
domestic
singer
focused
absol
dream
##olic
##irt
##atively
responsible
larger
suggested
virt
##do
critical
transport
##iger
pun
gian
trail
braz
aggr
accident
consult
categ
34
##jected
##mon
hang
baseball
multiple
waiting
##20
pil
suit
##town
remind
benefit
frequ
##don
electric
dollar
iow
weak
##osh
##bit
horr
status
plant
exam
indeed
finding
##apt
nature
recommend
##mark
purs
camera
##igan
##ysis
75
minim
dropped
##ef
##uals
legislation
enforcement
apparently
filed
crew
##ront
2005
micros
issued
fol
##ole
illegal
album
sites
resc
dad
losing
ii
nick
##ager
##agon
various
marketing
herself
37
device
keeping
asp
##ius
doubt
doctor
offering
liberal
wish
aim
kelly
##cel
##aud
##acher
standards
draft
authority
##wise
increasingly
laugh
memor
repeated
jul
iowa
behavior
tend
streets
reporting
elections
slight
muslim
oppon
brooklyn
##woman
##ption
##aves
##cl
hack
becoming
northern
directly
bon
apartment
readers
receive
ron
rain
sanders
##stein
adop
##board
shared
cou
rand
bath
##adium
defend
gradu
confirmed
dinner
documents
##bing
##ga
damage
planning
##zz
##ania
##works
stopped
yester
tast
bottom
forec
rally
##eline
stores
##arm
commit
shop
ros
bigger
grew
ship
holiday
revers
##agan
highly
##ears
vent
mrs
hurt
basket
fired
launched
master
##friend
chem
helping
liber
degree
claimed
innov
cruz
signs
stadium
hopes
##aters
options
occas
mccain
##ulf
##ipping
yesterday
##ifying
observ
sitting
concerned
sister
buying
choose
restr
rang
giants
ads
everybody
struct
dangerous
destroy
lob
writes
initial
critics
amazon
mont
##asts
arizona
andrew
##oval
yards
broke
##oisse
##antly
connoisse
normal
wire
##ube
adj
twice
palest
ali
scientists
meth
shown
##wr
span
coff
votes
advantage
lad
defe
kr
abc
depr
detail
##elled
brazil
nominee
giant
jail
faces
unem
actions
decisions
ford
##itely
corner
expensive
sudd
beautiful
domin
isis
##ta
tay
vehicle
parent
##hol
physical
unemploy
resources
suc
wear
##gas
shr
heat
##ato
eric
refuge
revealed
tight
##ym
##uk
movies
festival
nas
analysis
origin
advice
odd
##owed
funding
fit
sudden
dipl
rising
devices
##any
##oe
ultim
eastern
option
outl
55
entertainment
va
##aded
alleg
parl
championship
believes
##car
##sa
2004
carr
ash
treas
##ingly
scand
appoint
trading
ww
soldiers
stick
diplom
microsoft
exerc
loved
israeli
polls
massive
feature
analysts
surprise
tenn
sides
creating
reduce
elected
necessary
sor
turns
facing
smaller
canad
volunt
dar
rush
insist
##ucks
fully
limit
controll
38
protection
proposed
dram
figures
prosp
bail
sharp
winner
healthy
turkey
exhib
victim
##iate
penal
##agues
plenty
male
strike
hero
congressional
##ayed
lock
##abor
promot
crack
prefer
trouble
accounts
divers
##isher
scheduled
core
suspect
expert
##outh
400
wine
user
familiar
ded
worry
mortg
tea
haw
##well
##ipe
##izes
##icide
cere
##elle
ultimately
jr
clin
boost
defic
quarterback
##itude
royal
##egr
43
generally
prince
quiet
42
bird
explos
##erate
onto
temper
easily
produced
projects
owned
notes
changing
australia
voting
##dy
politicians
cyc
rare
file
nearby
##agn
spect
##outs
items
imagine
responsibility
activity
##iami
##bre
emp
##arters
##anda
injured
interested
raising
##onym
steps
agent
effective
operation
bell
feels
covered
##wards
occup
##mit
episode
miami
tru
##bl
guil
revolution
ped
protesters
wer
stan
silver
feb
apart
##more
communities
lic
pregn
score
profile
##rich
##gl
archit
##ror
##ews
##ano
charles
bod
arts
influence
measures
##ictions
bedroom
valley
install
##apers
##urred
##ze
lady
##ancing
default
skin
eb
films
##porary
stret
balance
jenn
unp
unit
division
clim
bat
ram
##gry
sweet
##etts
palestin
failure
parliam
##essive
ven
injury
lands
fifth
##ansas
41
##pts
daniel
younger
tun
hell
##load
flood
spirit
##ini
neither
ren
##ulated
unless
##dom
breaking
identified
rick
playoff
##uts
lux
suggests
##inn
construction
fant
48
confidence
explain
##ctions
vehicles
##pped
bloomberg
##icip
##resp
deals
capit
windows
parliament
gain
finished
##utely
appl
bure
obviously
artists
emer
##racy
reserv
command
kh
guess
ukraine
ruling
surg
66
separate
boys
##illing
stocks
moments
motor
barb
walking
achieve
##eas
guilty
filled
incred
decide
pulled
developed
##oma
shel
44
complic
davis
row
setting
princip
##ledge
rog
##pet
finance
armed
environmental
##arks
taylor
goals
cart
conflict
prepared
linked
disappoint
harv
39
##aped
##ivity
##achus
discovered
tradition
explained
##ih
executives
bron
checker
luc
operating
amid
##burg
finish
minist
scale
lie
nar
##gets
##comments
sector
lawyers
resist
turning
##gu
##wart
estimated
hate
##achusetts
buildings
agencies
##ounding
sust
craz
##enses
massachusetts
panel
brad
prosecutors
##coming
tonight
reportedly
easier
rum
allows
dozen
broadcast
##iders
ther
fbi
194
honor
kitch
earned
##bon
fish
airlines
forum
struck
uses
##ias
basketball
producer
##ador
faced
shock
cy
surprising
closer
##idel
www
argument
##aid
chron
depart
sac
starts
##repr
definitely
yank
##igned
lawmakers
batt
cow
##nel
individuals
active
investigators
##aks
golden
olympic
mile
committed
pray
wins
sher
earnings
missed
honest
prompt
##oster
integr
##adel
kevin
proposal
voted
ital
kennedy
terrorist
roughly
00
confident
otherwise
bridge
broken
produce
village
afp
##illy
teachers
##aza
michigan
compar
pool
connoisseur
##arant
##iana
##item
dance
bright
##going
##acters
frustr
characters
rein
zone
oce
permalink
pic
ride
lots
remained
thinks
location
protests
putin
batter
transform
listen
channel
ell
presence
stone
knowledge
rene
effects
challenges
absolutely
##lv
recru
greatest
privacy
supply
relatively
monitor
inspired
suffered
##ulate
wars
seriously
allcomments
includere
includep
heads
65
wedding
ty
47
chap
sky
classic
##orrow
htt
nba
direction
miller
sounds
ec
assistant
appropri
yout
vast
rival
ray
spons
##uted
ensure
comedy
##rey
2001
retirement
perry
##iot
recovery
nic
##gia
solid
boe
cloud
lew
basic
##place
##ched
buff
electron
##azz
bringing
bear
vegas
denied
##ighter
proud
youth
##illed
react
injuries
arms
##itation
aware
##rative
expressed
shift
unus
truly
boss
coffee
fisc
##mates
laur
corrupt
appearance
99
pit
nobody
allowing
criticism
assum
kat
method
amazing
initi
tack
serving
rent
forg
exclus
##cy
managed
ah
object
tourn
imposs
stands
announcement
oak
hits
becomes
learning
##gs
forget
garden
##atically
##inent
lawsuit
helps
advertising
outr
carried
##cher
##iat
weren
hou
edge
slightly
negative
interests
religion
code
youtube
##ici
employee
warned
ring
eating
embr
patri
breat
consequ
switch
typically
dish
brian
nomination
gh
##engers
allegedly
bes
tony
46
gm
##eld
speaker
lake
throw
bills
prove
##rop
conclud
2003
ba
organizations
##roit
pin
talked
##rial
cru
##ula
hen
unemployment
sick
matters
##11
alco
teacher
##ashed
##rom
##night
belief
apps
paint
register
columb
ted
colleagues
##sen
##iters
fewer
vision
##adelph
loans
unfortun
fortune
victor
warm
models
ly
jord
percentage
sought
index
wilson
philadelph
wake
kitchen
publicly
##bled
grown
provides
basis
cultural
clar
##gar
##acing
extremely
decline
watched
52
assets
philadelphia
apply
##roll
passengers
marc
shopping
studio
possibly
celebrity
warning
champion
admitted
tests
italy
stress
dall
ticket
##ece
considering
##road
canadian
skills
unlike
sharing
tens
affect
fiscal
eu
bul
scandal
asse
dismiss
##oned
treated
discussion
tra
bol
ordered
lunch
detroit
task
##vent
##isf
##issions
walked
##iner
##athan
worried
guarant
refused
cooper
spokeswoman
##tained
surgery
forb
backed
advance
mental
qa
##ka
actual
grab
amend
outs
unlik
apprec
happening
placed
abd
mountain
jes
hoping
leaves
##icient
fred
##isan
suppl
coalition
lind
messages
adam
##craft
seconds
harm
picked
rooms
seats
entirely
widely
##err
reflect
talent
unique
##how
length
##ques
argued
possibility
yell
architect
yard
trend
impossible
firms
underst
patient
restaurants
diss
truck
introduced
adds
anthony
houses
suicide
unlikely
equip
pointed
ken
kur
##aire
deaths
magn
jury
drama
ipad
button
chick
notice
hu
shouldn
##west
guns
acting
approved
##vant
brothers
##mond
ment
##gment
##pm
activities
affairs
solution
##nell
palin
cu
##awn
welcome
dallas
iv
italian
##eda
cos
leads
pieces
emph
japanese
golf
##reprene
harry
jason
terrorism
sarah
##usted
customer
entreprene
conservatives
musical
fraud
stephen
animals
wing
colorado
anonym
cable
fab
wheel
returns
shots
drew
joint
dod
houston
blame
gon
pra
allegations
##ansion
dozens
clients
guests
##reek
providing
les
academy
violent
declared
stood
urban
##oms
values
jordan
rapid
driven
category
cards
songs
deputy
volunte
##oving
surprised
seasons
talib
immigrants
holds
jay
apolog
window
responded
deleg
folks
fees
gallery
narr
193
flat
reaction
determine
math
vs
dub
tiny
circum
dun
ocean
machine
divor
cutting
assess
seattle
emotional
##agram
map
testing
##oul
connection
2002
##oked
##oses
##ari
mortgage
saud
##ella
retired
##sey
pled
pope
loan
native
opportunities
jun
networks
prize
obam
santa
creative
guide
buck
pushed
obvious
update
delivered
originally
greece
taliban
funny
falling
vul
agents
ow
adults
rail
supported
##veland
##box
cleveland
determined
##tered
abortion
jewish
democracy
potentially
migr
drivers
crazy
positions
greg
cloth
animal
##ograp
reagan
lev
risks
##aine
##fit
requires
bodies
mut
##ker
planet
intended
transfer
moves
developing
communications
ble
ye
equipment
remark
##acle
robin
cbs
concept
alternative
christie
##enda
internal
disappear
regime
kent
avenue
supporting
scored
shif
subur
carrying
deeply
olympics
established
150
##cription
optim
existing
mitt
##erd
steel
54
chain
aside
veteran
franch
catholic
historic
assemb
51
##bel
##usion
industrial
exercise
reprints
spark
##za
factor
background
hamp
boom
resol
muslims
##sylv
##essions
recession
##ils
campus
bom
pennsylv
##icious
ugc
hyp
jac
gang
##ifer
##roid
governments
contem
understanding
symb
activists
##inct
chemical
visitors
53
personally
speaks
##enders
pennsylvania
dur
stun
georgia
payments
initially
accompl
passing
aband
##whel
reserve
journalists
libr
atlanta
##ibution
hay
variety
jam
subsid
##eness
alcohol
tournament
defensive
proceed
belong
pu
split
weigh
obl
joy
##apping
passion
##hab
##iev
beer
disney
friendly
removed
flu
anc
cabin
gift
##ani
succeed
##odes
cry
somebody
toy
veterans
matth
zero
horse
approval
beij
chef
alive
sus
enem
##abeth
memory
predict
##top
yield
instagram
directed
deficit
disaster
beijing
##uster
likes
diet
rescue
secure
aircraft
mun
inflation
purchase
headed
ts
towards
flying
identity
##mann
oscar
cheap
equal
dogs
iron
reput
occurred
coord
begins
emphas
angry
struggling
##phones
##ilton
##berts
##eman
affected
sees
##istics
samp
mcdon
##equ
##pay
ends
purpose
remaining
luxury
repeatedly
##me
shape
viewers
##lo
##otic
##ulous
shortly
cruc
josh
harder
involve
medicine
asia
swim
substant
contrast
pushing
auto
debut
thus
proced
soccer
rice
gray
losses
##aham
motiv
##ili
navy
##iber
sentence
beauty
##ept
regional
sending
pounds
drag
##ographer
journey
controversial
elimin
ending
sorry
brings
##ading
pattern
argue
iraqi
sym
facts
combined
##acity
conducted
relief
negotiations
dut
representative
##iable
##ogue
hurr
pent
diagn
tweet
600
centre
##uana
birthday
suddenly
qaeda
upper
tall
##ivals
##mony
##osing
overwhel
realize
coupl
elsewhere
meat
ceremony
gap
minimum
flash
49ers
95
nut
##bor
tied
eliz
ru
##exp
opposed
consistently
opponents
comfortable
gotten
rig
##ijuana
satisf
##idency
mistake
harvard
memorial
label
##icts
institutions
surface
##shire
cham
immediate
handle
worker
transportation
edt
##acare
promised
##boy
expectations
theory
rubio
promise
##ables
##rees
statements
anger
cameron
57
counsel
infr
desper
sanctions
sir
estimates
bench
roberts
libya
scenes
##ties
crimes
##uer
unusual
kate
woods
dyn
saudi
puts
##ucing
lit
##hr
##urning
bang
howard
household
medicare
obamacare
scar
blow
collabor
presented
trick
##aling
wave
##aska
##stop
##rant
##enger
patrick
struggle
queen
weekly
800
australian
plain
convicted
jen
##stre
##nam
calc
lam
pages
da
actors
##okes
tree
soph
radical
explains
empt
som
athletes
surge
56
vulner
session
perman
concert
ws
entered
enth
transl
route
heavily
tools
http
##olit
designer
finds
founded
confront
linc
spain
phones
downtown
##uous
hired
tickets
tact
load
##icated
##gen
closely
allen
##chester
##ography
attended
yankees
contain
##och
corp
wisc
##azi
moral
stretch
schol
bound
marijuana
justin
euro
gender
hills
comprom
eld
remarks
persp
pleas
thoughts
##estyle
##timore
icon
combat
walker
##hner
##otted
institution
elizabeth
meetings
renew
minority
baltimore
connected
pacific
jet
##een
warn
wage
##aled
accur
##itory
hat
keeps
bonds
recalled
sugar
nev
interact
incom
##igue
mouth
bin
penalty
hurric
annivers
worldwide
facility
kansas
headqu
alt
rar
assad
anticip
implement
coc
##onsin
allies
moon
interviews
morgan
broadway
##iser
increases
##mad
competitive
##iere
pace
gross
adult
##inations
soul
package
occasion
unable
sets
##ship
59
disag
premium
circumst
controlled
solar
korean
wisconsin
authors
treasury
stim
consc
##oln
seed
basically
tap
##nbc
##era
140
##erous
partnership
agenda
savings
pip
pock
extreme
closing
captured
ka
gains
replace
dc
taxpay
maryland
experienced
tips
bbc
faster
cha
legend
org
involving
anniversary
##pro
bor
##kel
ministry
excited
##reh
spin
jets
##add
schedule
fame
centers
iranian
##lah
brands
usual
85
##war
amendment
om
remove
##iences
##itable
acknowledged
##har
theat
threats
borr
chances
dim
completed
##laim
tag
fighters
answers
bankrupt
trig
arrang
anx
drinking
tort
discr
58
equity
##ario
##ien
confirm
essentially
deploy
##acks
##fc
scot
palestinian
profits
##ucky
oakland
##what
identify
suffering
yah
commitment
newly
buyers
anyway
##ached
illustr
necessarily
biden
totally
##win
ruled
continuing
colon
##ophy
reputation
cops
margin
buzz
syn
offense
reds
##asy
tan
##illa
clothes
chat
writers
pilot
pover
taste
duty
bureau
uncertain
##ructure
##aults
etc
longtime
lincoln
transition
handed
jur
##respond
innoc
android
affordable
shirt
michelle
courts
dating
inqu
practices
boat
kerry
correspond
depend
poverty
nasa
ties
250
knowing
feat
unfortunately
mexican
powers
##eland
joseph
##erties
fears
spanish
commissioner
element
anywhere
lin
opinions
brew
posts
alongside
kir
visited
swift
##aver
function
bever
kl
types
scores
tracking
severe
washingt
carter
hor
marsh
##ids
##emen
reven
charlie
touchdown
jennifer
limits
desire
chees
forest
gulf
guardian
astr
mosc
drawn
mine
enthus
administ
specifically
hitting
emerged
sequ
stab
##34
withdr
maxim
tomorrow
##encing
manage
##achel
compens
##gy
oklah
forecast
jer
stewart
##mate
appropriate
franchise
##water
hunt
##ocol
busy
aggressive
headquarters
##atured
excell
loyal
recon
threatened
lean
ongoing
reader
hole
sacr
walls
interp
currency
represents
portra
pump
ox
factors
referring
##amm
##fan
punch
maintain
##icing
stuck
choices
dies
##10
resort
##ll
##stream
celebrate
profession
highlight
conclus
cock
##tle
corruption
hampshire
select
chose
##eme
##born
stake
hey
##thy
sight
trends
##ita
##illance
consequences
##oen
na
upset
unclear
regulations
elector
conce
oklahoma
recorded
fo
##antic
adviser
surveillance
##hl
##etime
atlantic
gig
tool
##fall
landsc
hed
neck
##mo
telep
orange
dealing
##itals
flav
rape
##ikes
structure
hardly
campaigns
wsj
girlfriend
venture
infrast
fel
listed
presidency
##isa
premier
##stone
therap
advent
dol
dry
mentioned
distance
returning
compete
consp
sharehold
falls
letters
maker
globe
devast
##onto
somehow
sunn
ingr
employment
scientific
defeat
stronger
moscow
##apse
wounded
beck
warren
henry
hong
memo
capitol
##aze
hip
##fol
managers
fisher
advanced
orders
##inals
hook
##urray
ire
##empts
yahoo
tm
engaged
resign
lewis
anybody
doors
brut
dial
##greg
racial
##uits
refugees
##news
##ext
receiving
##away
editorial
##pass
legit
chicken
##elson
foods
infrastructure
05
minnes
reduced
anton
barely
kiss
somewhat
investments
##pping
performed
columbia
atm
##iano
ging
proved
salt
##standing
captain
capacity
terrible
typical
offices
jonathan
philos
##ecomm
cream
relationships
startup
forbes
embarr
aimed
bub
crucial
cul
##raid
barr
delay
##ucc
flights
##met
hid
##real
swing
lifestyle
loud
##inating
viet
forth
prominent
strikes
plot
library
strip
embarrass
grass
##igation
##arch
rejected
attempts
mall
extended
##izon
##uations
fallen
minnesota
##east
magic
highway
##point
km
frequently
hud
dramatic
mol
kong
blind
lights
##ologists
moore
wonderful
liqu
roof
wis
manufactur
accepted
vacation
cuba
##ords
emails
##bles
##ss
mixed
complicated
illin
acts
ambass
featured
##ua
greek
findings
mas
realized
territory
escape
anderson
diego
settlement
cav
##olis
##vey
cameras
wat
##sea
##itzer
waste
##onom
moderation
lies
mood
sheriff
rating
##fast
toronto
stream
technical
enh
trillion
##ensus
cited
rely
gear
disrupt
##ecks
urged
##imp
opposite
##phere
01
tie
thin
eval
goods
##taining
sov
attacked
perspective
mitch
parking
steven
##ko
08
banking
resolution
700
accompan
##ds
frame
desk
extraord
lucky
client
pregnant
sed
illinois
effectively
enorm
##burgh
nich
queens
inch
carbon
significantly
controversy
hurricane
causes
##opher
deadly
shad
##irty
circumstances
todd
fee
afraid
gingrich
1990s
breast
plants
targeted
graph
ratings
ech
##ounting
hub
judges
surviv
hug
instruct
mech
assistance
emerging
journalist
graham
managing
adjust
badge
##page
tweeted
numerous
##agement
premiere
pier
employers
##imination
weapon
couples
##see
##ibuted
rarely
essential
##osen
decent
##care
asian
clark
stayed
kard
terrorists
suspected
##berry
kentucky
##rid
alab
generic
yellow
liked
legacy
##lad
units
gif
chase
leon
cauc
##set
theme
surrounding
##can
##wich
rio
murray
##vis
inspect
reid
suspended
prohib
##ray
interior
##icop
innovation
boehner
producers
##zy
ross
sty
blast
illness
ebola
recognize
ta
unw
everywhere
punish
fasc
kinds
heading
harris
militants
hospitals
##nic
##irts
rebels
##hd
musc
begun
mechan
myst
regularly
trees
species
orle
empty
latin
andre
criticized
##40
enterpr
casual
ferg
nevada
plastic
voc
recip
roy
payment
laid
encourage
diam
footage
##king
promote
gathered
##ati
grade
##erce
carl
##iration
kardash
lobby
pink
experiences
bathroom
teleph
rolling
denver
targets
combination
##ibute
senators
province
motion
isol
##usal
orleans
alabama
stor
tower
62
laden
##under
cia
creation
intense
1999
publication
photographer
articles
hadn
##list
invent
impressive
##icial
stup
entry
trigger
appe
editors
ourselves
classes
##eller
subscribe
chel
flow
bars
labour
somewhere
hiring
rav
##iveness
cancel
holl
fought
##uable
shoes
##anna
modest
intent
medal
##pd
intens
depression
improved
ward
##put
##ounced
smoke
jane
##idelines
threw
humans
intention
personnel
indiana
narrow
veget
##die
##ogan
fla
gained
airline
##ashing
##ito
summit
09
phill
gord
unif
insisted
tmz
##jo
anch
##ouri
therefore
##pson
anymore
endorse
commerce
##ala
replaced
painting
divorce
vacc
whit
marine
manufacturing
regarding
cert
wealthy
comed
visiting
##life
download
elev
incor
pentagon
expansion
historical
saving
joining
##hi
forever
##alf
advocates
opens
##bridge
yeah
upcoming
chip
tone
strange
##immer
brill
##licit
representatives
helicop
##rators
sustain
ster
traged
demands
drawing
pure
reaching
matthew
salary
context
cruise
thompson
degrees
##uson
arrive
prosecutor
unve
virus
swed
overseas
drove
abb
cents
##ifications
persu
deserv
strategic
covers
##anny
outcome
##anes
saved
photographs
sin
##athy
hispan
lau
documentary
gent
tank
makers
withdraw
sixth
accus
gaza
rot
physic
describe
dressed
tested
##regon
metal
regardless
condem
exhibition
officially
##ologies
charity
entit
winds
uniform
monthly
##aron
differences
oregon
presum
##erts
slowly
torn
##maker
taught
inev
rodr
sony
tail
disord
78
electronic
##fig
overl
organized
sweep
bruce
firef
##amin
jimmy
waters
##ulus
failing
butter
claiming
##key
securities
##amental
pad
discl
##ae
subm
##imony
childhood
##rell
located
neighbors
nin
performing
proof
##iti
decor
hoped
ferguson
universal
encoun
mcdonald
ambassador
joke
##agger
jesus
tip
mash
adopt
causing
concent
larry
nerv
gates
constitutional
malays
kil
soviet
importance
explan
staying
##po
forms
##mes
snap
gary
dynam
##here
amy
craft
bart
materials
timely
roles
smartphone
192
bunch
dick
comic
owns
##bn
commander
investor
passes
lyn
##omo
##oves
permanent
md
destroyed
goldman
pod
72
civilians
uncom
##season
##hal
##losure
prospect
handful
partly
complaint
corrections
overt
prepar
reward
quoted
height
##ova
independence
warner
discussed
eag
delivery
compos
elite
establishment
races
concluded
broader
fundamental
transpar
pizz
literally
custody
application
concentr
vig
citing
chelsea
redskins
wolf
clock
hosts
##itarian
marked
outrage
applications
incent
hotels
granted
1980s
survive
cycle
dancing
fi
invited
clot
skept
dict
graduate
nonpro
contemporary
complaints
nato
detect
64
computers
flex
pound
##ulations
07
prepare
excellent
##inem
bold
##osis
papers
##fire
unkn
unexp
jacob
noticed
dust
jess
##ora
attempted
asks
pig
badges
thick
telephone
##gf
##flix
gym
experiment
retr
nurs
exposed
collapse
fairly
copy
traveling
fried
battery
phr
sams
02
##aa
facilities
tear
blank
upgr
defaults
citizen
##abilities
hire
arena
mour
fields
unexpected
chosen
apparent
warri
revel
vulnerable
factory
incredible
##ooth
##force
initiative
serves
cig
unions
settle
announce
68
##vention
abroad
gib
useful
milk
featuring
earthqu
netflix
assembly
expos
##rian
boyfriend
##lers
exclusive
##requ
sean
evol
calm
discussions
gi
##acted
wore
##umes
teaching
activist
ridic
kardashian
##weight
uber
##the
metro
tracks
cheese
##xim
sons
slam
dave
noting
participants
ranked
alert
coaches
griff
volume
enormous
##iro
edward
fault
ramp
##ester
reviews
appeals
##sters
brady
dedicated
personality
investigating
expects
tamp
ballot
##osphere
christopher
mets
ages
stepped
trem
1998
threatening
ga
capable
rivals
andy
conven
##gent
samsung
stupid
locations
##ela
patriots
knee
##yer
temporary
ov
elig
utah
gab
fake
reasonable
gordon
61
##ockey
elder
struggled
##50
simon
cooking
##ales
furn
##acement
lane
jerry
menu
67
portfol
valuable
fled
capture
relatives
formal
selection
virtually
sympt
##riers
follows
manning
##jm
marks
finger
strongly
##etor
fruit
nur
unn
sevent
requests
grace
intellect
rab
breaks
overwhelming
regulators
fantasy
frag
diamond
ib
knock
stations
scrut
roads
##aughters
##che
alexander
survived
throwing
inquir
unknown
gam
relevant
##ls
trained
mini
##max
academic
##iors
hung
elements
04
enroll
bread
lowest
inches
suggesting
solutions
monet
cells
bry
marath
glad
bankruptcy
covering
surely
##uctive
associate
chen
auction
politically
wides
thor
satell
bump
behalf
superfan
##ply
shout
smile
##rison
ideal
ancient
ceiling
##iguez
error
##ico
passenger
viewed
challenging
priority
acquis
##orous
barrel
pharm
espn
##bv
null
mainstream
testimony
represented
hide
chocol
rodriguez
plate
tu
##ii
moderate
fatal
conversations
fortun
##apolis
embass
virtual
dj
##pread
hann
##ighth
topic
extraordinary
pel
orch
enjoyed
tries
mah
03
##bow
##char
pow
crown
consideration
##acon
tennes
accel
dispute
##enot
counts
lav
rural
mistakes
evac
##thr
relative
symp
promises
##ception
entering
06
bears
20th
1970s
discovery
63
##break
dining
legs
racing
outdo
pour
##xc
missouri
extent
gate
exit
widespread
nationwide
feelings
emissions
gor
stol
peak
detailed
raw
##cover
listening
odds
merely
##asters
##ucker
##ennial
breath
tragedy
orland
cra
economics
lt
chamber
tri
technologies
parks
gil
##tab
##icut
depth
mars
loves
referred
pitts
eager
flaw
scul
squad
weird
louisiana
##otte
##ington
##header
theatre
contracts
shoulder
toll
##bell
billions
prompted
landscape
rebu
connecticut
toler
breakfast
regulation
irs
##astr
restrictions
branch
##acked
suspects
convin
pill
daughters
lying
string
beating
license
ult
meal
spoken
economist
##enom
engineering
verd
alan
rook
tape
jumped
cyber
inher
compreh
constant
bernie
statistics
##rah
##lands
fundra
pap
interpret
##vote
77
signing
##9k
civilian
1996
developers
subsequ
blas
preparing
barg
expanded
ireland
witnesses
sandy
ultimate
liver
equally
jean
orlando
##eshare
retailers
tennessee
ale
russell
##isters
reference
spots
adopted
bp
##owski
manner
amounts
##bling
##eries
##uate
recording
striking
obtained
##otes
fool
##uzz
sensitive
registered
bombing
exchang
##inate
questioned
##h5
explo
killer
stated
ronald
assert
##comment
##front
symbol
##ped
equival
##sper
healthcare
##aturenot
##aturenotification
vietnam
##config
austin
tiger
##isplay
alaska
proposals
##bour
exciting
phoen
##gfd
prost
babies
ranks
##length
##topic
##ographic
##echron
##items
##required
dil
displ
##zpd
##zxc
##0da
6634
washingtologist
##ika
pose
##ecommend
km4
includever
cultuer
8bv
##erecommend
##ey0da
includeshare
includerecommend
markerd
commentmax
commentconfig
childrenitem
##ifiedcomment
includefe
includeheader
includevote
##ermalink
##offtopic
maxitem
maxitems
includesorts
reversechron
defaulttab
includereport
includereply
includepause
includepermalink
moderationrequired
defaultsort
##h5zpd
##sperpage
##zxcgfd
6634zxcgfd
km4ey0da
includeverifiedcomment
8bvh5zpd
markerdisplay
commentmaxlength
childrenitemsperpage
includefeaturenotification
includevoteofftopic
maxitemstop
reversechronological
km4ey0dajm
includeverifiedcommenters
8bvh5zpd9k
rebel
engage
clothing
lord
updates
stem
banned
vet
##angel
opponent
chronicle
brilliant
irish
cigar
playoffs
subsection
##rum
packed
susan
checks
consistent
nap
soldier
walks
assume
az
communication
##icon
convinced
generated
sentenced
##abled
sculpt
##uls
summ
empire
##ete
random
affair
##agu
##rick
##heim
rhetor
berlin
agric
seemingly
cabinet
discip
strict
##rd
##obe
phoenix
gathering
##lick
towns
##agic
dates
marathon
jews
##ippi
winners
##stage
tennis
hidden
craig
wright
lets
funeral
ark
vital
formed
pear
##rets
perfectly
principal
cous
##iracy
parade
dominated
niger
yemen
circle
##12
expenses
turkish
relax
##ihad
billionaire
entrepreneurs
homeless
scoring
intim
estimate
notion
gene
singing
grav
deadline
farmers
maria
dw
##ussels
shame
phenom
judgment
##ho
arguments
voter
ingred
donors
visits
reforms
dismissed
runner
smoking
fixed
tackle
##alo
neur
duke
desert
harass
shall
followers
ast
##ded
##esy
racist
##itious
dump
gut
properties
diplomatic
investing
carefully
##orum
neut
sits
argent
canc
dna
thrown
dean
agricult
belt
discrimination
uncon
remote
myth
##hs
por
suffer
delegates
contributions
shell
hawai
kidn
constantly
alliance
genu
links
awa
roots
tired
dear
tabl
##lights
minds
nonprofit
meg
##tv
mississ
describes
participate
69
##oli
conver
##ixon
compensation
enemy
directors
landing
lon
applied
lift
##apes
##ports
traum
logged
routine
chest
stir
instru
fer
medium
lawr
baghd
pittsburgh
whis
##lessly
vin
##vy
predicted
portrait
##ours
lessons
tweets
twist
##ibilities
##giving
shocked
belg
76
copyr
performances
##ommod
tent
collaps
signal
understood
##oop
bags
hedge
baghdad
burning
accommod
arrives
ay
pride
fu
cinem
operate
solve
scholars
celebrities
##rog
exception
warming
contributors
lynch
barry
evil
divided
spotted
landed
lifetime
##ulating
##wan
chocolate
lesson
##lan
distur
chuck
narrative
ethnic
compromise
bip
appointed
polling
1997
habit
handling
73
stanley
##ahu
settled
##rest
wages
expanding
pension
storage
asset
##artisan
letting
cnbc
##de
temp
celebrated
filing
topics
corporation
okay
fate
depos
explosion
aaron
overnight
industries
normally
abandoned
protected
dat
##iated
exposure
liberty
victoria
emotion
atmosphere
seventh
mississippi
stolen
depending
tourists
controls
fare
tears
presidents
clash
roger
escal
ordinary
pc
aer
informed
aged
blocks
palace
universe
incredibly
hunting
damaged
albert
santorum
memories
underm
egyptian
##dp
pist
admit
yog
##gie
tam
brussels
madison
74
adapt
accomplish
arabia
mandate
##uated
junior
conscious
copyright
mainly
arguing
lawrence
##icate
searching
##itar
repair
##angers
opera
##uctions
encouraged
##iques
##afi
jihad
economists
transm
portion
promising
celebration
exceed
##lington
corporations
hart
reducing
imper
extend
substantial
##iture
liquid
##orted
alter
manchester
##alia
hamas
inning
sod
##ira
##endum
hosted
raises
mate
remarkable
hamilton
##agers
spotlight
##ila
temperatures
mccon
71
##awa
acquired
shareholders
signature
roman
badly
besides
symptoms
equivalent
locked
##isation
##image
competing
stamp
tum
explanation
regulatory
electricity
pursue
involvement
bottle
##ping
lap
picking
provoking
engagement
athe
attends
krist
cowboy
bust
##oration
##asion
visual
##olitan
femin
haz
implic
legislative
##rete
borders
appreciate
embassy
drone
hanging
enterprise
supplies
han
momentum
parker
mystery
collected
shops
cliff
shan
ak
##feld
preserv
tale
collins
##ns
##ione
interviewed
smooth
addressed
sid
dreams
indicated
aides
##otten
anonymous
1994
earthquake
primarily
grounds
fiction
headlines
carson
##etta
robinson
carpet
##oning
collective
dying
wells
portfolio
careful
demanding
courtesy
lists
nights
##otyp
sne
##iece
pocket
nancy
trips
egg
posting
quit
backing
nash
##inder
studied
##rator
##anne
politician
competitors
selected
lem
titles
circuit
beverly
christians
wy
##inking
silicon
rud
rocket
machines
colleges
##va
frequent
drunk
streaming
cheer
gonna
islands
referendum
porn
##dan
toss
##inely
1960s
##walk
recognized
requirements
lineup
distinct
wik
metrop
comparison
##vens
##bury
romantic
innocent
awar
deserve
##abet
tes
harper
lisa
latter
warrant
ou
scotland
welf
efficient
##child
traded
rivers
improving
##backs
##enez
focusing
orient
1995
##itage
homeland
dow
bitter
##ingu
sheet
supports
toyota
embrace
rookie
wrest
##olds
welfare
steady
desperate
guidelines
evolution
drinks
advisers
cuban
leban
stimulus
##ura
merch
barbara
guarantee
awareness
publishing
protecting
lever
foster
silence
gest
taxpayers
echo
prol
reduction
ranking
ultr
baker
bronx
advertis
nyt
waves
unpre
bash
cd
speculation
##gins
rif
voices
stall
caution
zeal
##tha
painted
stein
favour
prisoners
bou
philipp
rome
##father
cole
corps
crowds
zimmer
arrival
riding
blamed
##elli
planes
nationals
tablet
hob
properly
88
sophistic
##eds
groc
cambridge
diversity
scheme
producing
stanford
solo
vib
stable
fighter
multi
defending
popularity
##aved
poet
tang
horn
mothers
sque
disappointed
picks
rapidly
shore
##ria
edwards
rehab
troubled
blasio
universities
##owden
possession
charlotte
cant
defined
##gb
definition
funded
athletic
gad
##ivan
##aro
insider
salv
quant
proven
##lining
purchased
gag
moham
bombs
bike
brid
satellite
holy
hopeful
indones
err
neighborhoods
travelers
destruction
stunning
deeper
jere
##aping
jar
palm
cuomo
donations
surrounded
resume
##iller
accurate
maximum
unfair
heritage
similarly
ease
attractive
##lying
orchest
##essing
##ja
revenues
permission
##pa
experim
##pe
script
resem
thousand
clubs
boun
##andez
##bal
gill
pizza
attitude
kas
recognition
effici
automatically
employer
hopefully
hugh
teenager
courage
departure
biz
rear
hockey
##phy
ghost
##enberg
recalls
investigations
merc
versus
thanksgiving
unh
len
providers
traveled
lag
screening
teens
froz
shake
##aving
generations
2017
compon
stops
debates
extension
jazz
nelson
beef
reluct
impression
malaysia
reun
financing
##pton
conclusion
shadow
##actions
plun
##eston
resistance
1992
##ked
cardinals
liz
##tail
fier
anxiety
##ecutive
neutral
phenomen
82
concrete
19th
nat
ownership
hag
##ifies
wrec
studios
medicaid
kle
spaces
approached
newspapers
nervous
perce
decre
dougl
morris
cohen
priest
caps
coop
eligible
situations
pointing
pulling
##oyd
monetary
nominated
##olas
bish
ott
##rett
attorneys
##onda
birds
wireless
liberals
successfully
##umph
clinic
complained
therapy
ski
##bits
scrutiny
delayed
##stal
fet
##eding
pays
assass
sf
electoral
##ares
##athers
dropping
improvement
investigate
epic
##nie
rangers
dal
##pool
approxim
##tz
consultant
##omed
consecutive
unders
files
reass
chapter
eve
absence
nca
chart
incidents
manufacturers
monitoring
##xual
cheaper
humor
encouraging
sull
##word
##ello
intervention
tampa
endors
commod
mountains
##endous
privile
clip
prospects
1980
brutal
nsa
bullet
cafe
reads
##mel
examples
pregnancy
hispanic
eighth
hunter
harsh
legitimate
timing
##asty
disorder
86
exha
explore
assessment
##inator
rhetoric
paintings
recovered
ko
devoted
blocked
forcing
##anyahu
shelter
audiences
columns
resulted
reveals
oblig
castro
trucks
##oded
mud
120
##idays
##dam
netanyahu
occasionally
seized
alien
bog
##hand
delight
sox
conspiracy
burden
loose
drum
insurg
horror
##oppers
jol
whenever
sessions
visible
warriors
extensive
burst
versions
##hips
chaos
principles
##inter
foxnews
mashable
conventional
professionals
##ucted
publ
hudson
##lem
sab
enthusi
cord
tribute
beloved
volunteers
expecting
representing
kingdom
jessica
cair
##ux
philip
eggs
overlook
subway
jewel
briefly
griffin
guards
stability
##ycle
entrepreneur
shield
ncaa
##zing
survivors
newslet
##ardo
replied
attending
sisters
synd
breach
welcom
lapt
hint
comprehensive
matches
84
perpet
uncertainty
missile
starring
creates
##acking
distribution
##attered
denn
honey
cob
sponsored
defence
pron
##aug
temperature
repeal
craw
shi
syd
1993
##bar
##umber
diverse
firing
reserved
ships
journalism
##oming
##atherine
##iac
nad
colleague
ax
preced
gifts
iconic
##case
gram
ger
##awks
lor
ignore
##worth
pakistani
mock
conviction
dutch
ave
backs
garner
myster
kicked
targeting
hind
contained
exempt
1990
snowden
suspension
carries
knicks
valid
900
painful
moder
generate
surprisingly
spill
ranging
flee
##udes
burned
tables
progressive
crude
##ensions
recipe
rall
79
answered
existence
berg
arsen
mccar
swimming
£1
oversight
rou
87
weakness
transit
##star
encounter
washingtonpost
adams
##rical
turner
##chi
ukrainian
##ambling
polar
##mother
nowhere
consumption
assign
##kyo
outlook
negl
objects
chan
skill
##ettes
tob
verizon
mans
antonio
shutdown
root
defended
sells
mull
wise
##state
tas
tokyo
publisher
flowers
tensions
pleaded
architecture
##ushed
engineers
mcconnell
jokes
earning
##fa
wider
patrol
authent
naked
approximately
rib
aide
suspic
everyday
shaped
nose
kurd
manip
persist
midnight
developer
marry
##yard
guitar
loving
hood
phrase
stap
expression
item
guid
83
commentary
##wa
promoting
##ovic
inner
involves
sleeping
naturally
finals
websites
passage
designers
bailout
legally
thorough
helicopter
inspiration
grid
gle
##ses
anne
nutr
##aware
murphy
aids
sydney
rend
##itution
subjects
appearances
advocate
##cedented
##opez
johnny
##cia
unprecedented
phase
datab
mp
hawaii
notor
pir
rounds
scientist
mit
od
photography
teammates
holder
firefight
benn
palestinians
receiver
##rupted
fing
hbo
duck
verm
galax
##eb
practical
##ilit
fitness
##ucting
prevention
##acular
##ache
episodes
superior
teenage
challenged
ky
quarters
bund
ally
wondering
gonz
##ni
dealers
brooks
##power
telegr
##emed
dialogue
bryant
awk
homeown
consulting
discount
vess
stom
screens
buried
##agen
21st
mutual
tatt
danc
bubble
inquiry
pants
bother
infect
scenario
tactics
instant
obsc
coinc
deter
nu
pipeline
columnist
awkward
triple
noise
##once
educational
ignored
##oken
marco
cad
copies
fleet
abu
fulf
impl
##beat
destination
praised
douglas
##ali
outbreak
divid
viral
ambitious
regions
fold
mitchell
inequ
connections
peaceful
##lings
legislature
bedrooms
kay
princess
twin
##laimed
anchor
overha
talented
rumors
##inge
crimin
classified
revol
quote
intellectual
engineer
invested
dak
##vere
reck
metropolitan
frozen
##esc
sandwich
prote
##ami
colors
sauce
attacking
##ouses
dirty
prosper
methods
brows
venez
##othy
classroom
gentle
bald
meals
##ahl
correspondent
##mm
puzz
ku
explaining
patch
##dog
##oto
cooperation
newsletter
depends
grey
contribute
##atican
##person
silent
##izer
laura
ridiculous
lion
influential
occur
vatican
recommendations
argues
sophisticated
scared
meets
##tery
sexually
crashed
##erto
##esty
drives
##emic
swiss
prosecution
rebuild
vlad
1989
bout
repeat
nixon
replacement
demanded
leather
shootings
neil
grim
outdoor
##ielder
racism
hend
##lock
deny
flip
studying
celebrating
imposed
accusations
##issa
procedures
##ups
credits
cake
requiring
highlights
pione
furniture
dor
expense
roster
shirts
oldest
communist
##hire
campbell
checked
districts
##strong
beliefs
bible
serge
##ghazi
##no
punishment
vik
volat
differently
psychiat
hybr
southwest
navig
broker
sued
simpson
terry
purchases
bipartisan
##esth
immigrant
contains
compelling
streak
##nc
##reen
benj
##icking
formula
battles
plug
lopez
lip
closest
marvel
struggles
##17
hardware
zoo
venezuel
benghazi
migrants
irre
##gun
##eton
obst
##oard
calend
lobb
evangel
##usive
motors
iii
kings
underground
execution
uncle
ingredients
sorts
hors
whist
##jection
resolve
bru
brick
##yth
chronic
ruth
grate
franklin
nod
consensus
##ht
parad
beth
poses
##acc
inaug
mirror
clay
##thur
bone
consol
ank
achieved
discour
overhaul
98
##iang
ai
rug
attempting
steep
rolled
athlete
jenner
philosophy
bos
hearts
shed
flew
relie
elderly
anonymity
##itters
ware
remembered
spy
attracted
##sc
congressman
refugee
colomb
##gate
bent
overcome
kath
programming
stevens
cbc
##wear
torture
exclud
smartphones
##erald
reject
choosing
desc
cairo
sullivan
testified
petition
##anted
innings
renov
mum
acquisition
watson
##math
mccarthy
brun
openly
memoir
partisan
##rys
sustained
jeremy
##imir
discussing
substance
knight
educated
announcing
billy
ios
tesla
rushed
trains
attached
pledged
92
pitcher
nytimes
cease
##edia
camps
sentiment
reverse
verdict
automatic
##omin
arkansas
kab
vocal
burea
restore
beneath
devastating
carrier
powered
shakes
questioning
wildlife
sprint
ugly
sib
anticipated
qualified
##oria
scan
feder
irr
##acco
wanting
locker
disappeared
boxes
robot
190
##intend
reflects
frustrated
coaching
outstanding
helpful
survival
reliable
strategies
armstrong
sharply
simpl
median
checking
eleg
toxic
##etr
holland
dramatically
equality
optimistic
northeast
mere
trailer
caucus
blacks
##organ
posed
recre
##oping
beaten
describing
##usalem
bernard
zimmerman
##fare
maintained
quietly
indicate
authentic
clinical
marshall
mick
tragic
89
tremendous
##bean
sach
keith
seeks
frustration
dy
killings
##bul
khan
rental
##keep
jerusalem
dv
awarded
disagree
shocking
##enz
##isons
##appr
outf
trials
canceled
##ture
employed
uc
maine
uncomfort
curious
93
stern
idol
tune
##ested
vine
##arre
absor
##aint
##isely
dimin
regret
aging
projected
backl
dispatch
elabor
compare
export
excess
launching
##ching
minded
ft
audio
##isive
cot
diagnosed
rated
##osa
bik
awes
crossed
lending
holidays
advised
segment
bie
##aba
categories
ninth
outlets
mode
##umbled
spectacular
##uther
provision
eliminate
##iy
responding
gasol
knife
entrance
bonus
gdp
pas
residential
##jj
membership
violations
priced
resulting
pending
carlos
bully
slide
ethics
dawn
waited
profound
aspects
##esa
suits
##osi
acknowledge
indict
suggestions
anna
rip
glam
reel
forgotten
bachel
admits
hern
invasion
convince
resigned
stance
pressed
appearing
plum
accounting
walter
fishing
physically
saint
violation
grandmother
benjamin
keen
cowboys
81
elementary
##inity
stakes
defeated
shipping
detain
lined
excuse
wet
poison
exists
preview
explicit
crowded
purposes
tourism
catal
sparked
oppose
kirk
humanitarian
meaningful
charter
awful
cleared
euros
worthy
rachel
fda
boards
bm
displayed
##oat
transg
presents
##storm
dishes
vary
prayer
workplace
aboard
diabet
wisdom
comedian
si
praise
collapsed
##mart
##atoes
chanc
gover
vladimir
unveiled
careers
vit
mild
aftermath
tourist
grateful
bach
fights
fantastic
airstr
96
organic
galaxy
flour
preferred
##amo
cass
detention
##52
##bie
##asted
heights
techniques
advocacy
reed
blake
procedure
rational
requested
nest
curry
subsidies
wayne
dynamic
massac
hammer
deliber
incumb
##uten
hes
negotiate
dere
acted
reminder
smell
bass
crossing
##eli
carib
volunteer
##erse
titled
##aki
electronics
salad
1991
sexy
urging
buffalo
nyc
jeb
wiz
inevitable
speeches
predecess
##instein
hi
gunman
reh
lions
arrests
publishers
wireimage
##iqu
bobby
tub
spo
installed
cinc
probe
url
nurse
lakers
holes
97
disclosure
candy
aqu
millennial
##uan
channels
carn
ministers
ic
maps
sket
tenure
stead
handled
buffett
tai
cher
##ght
diseases
stere
genetic
principle
pleased
##ogen
unpr
constitu
firefighters
charging
militant
sunni
zealand
##urd
artific
islamist
detained
ufc
stark
evans
vowed
chrys
exchanges
scratch
makeup
ml
accompanied
##ellor
##appropri
telegraph
hunger
graphic
networking
patterns
jeffrey
##armed
municip
grave
##ternal
platforms
spokesperson
incorpor
##arms
priorities
scary
squeez
intimid
##yder
theaters
governors
knocked
portland
strategist
precisely
transgender
achievement
crying
bottles
##atar
fabric
alexand
apology
caro
reilly
##unction
vel
##umin
spiritual
liv
mph
businessman
balls
wound
entitled
teenagers
sponsors
dup
cosby
aims
supporter
barn
##avery
solely
creator
bizarre
longest
##leton
cellphone
guidance
##ders
nhl
governing
theft
eagles
bureauc
##isms
emotions
##apore
tehr
insight
ranch
mask
approve
phenomenon
##pat
dign
discon
arriving
##irm
shoppers
delays
diabetes
vend
##enna
hiding
zucker
pledge
calendar
epid
##ascar
aston
horrible
cincinn
demonst
##fields
cyn
indication
cartoon
trop
##bron
humanity
whites
##acious
##ima
citizenship
affil
secrets
interactive
artistic
gran
##rol
stopping
courses
shy
introduce
##cott
interf
aspect
singapore
contacted
sample
uncomfortable
ian
##urring
integrity
harrison
cape
suburban
heels
twenty
doubled
inequality
arsenal
mack
##min
motivated
portray
retain
ferr
gaming
tig
##cos
tehran
ought
deserves
bot
holmes
##iffs
##assion
dakota
cincinnati
residence
retailer
overd
evident
description
350
sporting
tempt
##vereign
##row
emily
##burn
touched
pond
trapped
temple
defl
transparency
bieber
addresses
sovereign
inclus
inmates
scor
romance
bacter
infant
##15
202
feared
enemies
fifa
utter
heroes
define
insult
thirds
thunder
vint
historically
reflected
argentina
creep
##illo
curt
panic
robber
trash
##zer
sterling
##fers
toil
pastor
payroll
hosting
afterward
94
economies
wrapped
casino
distingu
offsh
notably
##baugh
awesome
notable
##pal
latino
deport
grocery
runway
addiction
appointment
centuries
wow
teeth
musicians
##ras
conced
subsequent
beyonce
chrysler
haiti
bradley
grandfather
##sky
generous
literature
chancellor
riot
boot
enjoying
wi
garcia
addressing
##say
households
##bucks
tension
kany
supervis
kyle
##30
annoy
diver
##ratic
fern
fires
licens
delivering
judicial
##western
confused
loaded
toys
colin
psychological
arc
##days
jacket
tac
aviation
disagre
climb
dominant
dennis
debr
##rist
##right
lyr
pupp
madrid
muscle
masters
ric
calories
stages
dodgers
alike
radar
cain
##mble
inappropri
worries
credibility
##erie
##ippers
designs
responses
annually
sail
recruit
bour
##osexual
garage
spectrum
harassment
potter
robust
violated
##bus
peers
trim
cosm
brandon
adventure
apartments
bare
##heimer
costume
##aus
##aires
pitt
1984
semi
criminals
##enson
##onaut
schum
lesb
affl
legendary
preserve
specialist
##rayed
1988
emerge
##erity
cod
##lined
signals
performs
portug
lect
nik
drones
bachelor
deck
comeback
brazilian
reprod
sweeping
roth
prel
figured
##ahan
##istry
propag
laz
10th
boeing
reviewed
habits
plaza
treatments
disabled
reminded
retreat
sue
rever
nobel
dece
##rics
kurdish
lately
hernandez
##eting
arbit
jamie
##keley
carriers
lod
engaging
kanye
pepper
911
provider
margar
perceived
caribbean
##anged
crews
resignation
admission
pete
endorsement
remem
hybrid
triumph
database
##ista
hyper
efficiency
epa
soil
colour
flooding
starbucks
promotion
mosque
##children
sang
hilton
eleph
sachs
steam
wallace
rogers
pleasure
acceler
cruel
plea
sweden
sie
lawsuits
illegally
cave
1979
homeowners
cats
utility
##iani
lifted
dumb
quinn
arthur
##arten
sinc
##unes
arlington
berkeley
foul
##obi
drilling
warnings
counting
tobacco
##unting
qualify
harbor
worn
participation
demonstrated
acres
tours
pence
gras
starter
hallow
discipline
hav
##etti
foss
demonstrate
coordinator
##aux
patent
##tenance
appealing
tons
raid
airpl
movements
goss
juan
phillips
bulk
##itty
submitted
lung
collaboration
pricing
lebanon
disclosed
lineback
##umbling
fert
innovative
unfold
stomach
laund
shark
safer
##itement
cubs
tempor
##col
nyp
dash
##gg
##xit
stressed
refuse
penalties
indonesia
noneth
##oons
welcomed
researcher
holdings
genius
##astroph
burns
vermont
traditionally
agriculture
nonetheless
homet
assumed
mining
ignor
heaven
spell
trophy
bloody
tyler
buyer
von
straw
contrad
##yz
wag
compound
gir
##enh
screaming
privately
catastroph
ladies
airports
negotiating
##bourne
gur
crow
clut
smugg
absurd
aggress
##acles
##appy
monster
impressed
wooden
gasoline
##opard
sheer
valent
measured
obtain
filming
merr
##lie
##chez
crystal
pelosi
rapper
guaranteed
communicate
##like
genuine
requirement
founding
arn
feedback
northwest
treating
bases
respected
mtv
seal
juice
agrees
accepting
oz
poly
conservation
flavor
1950s
flags
divide
deemed
pictured
haul
##club
downs
insists
marketplace
observed
laughing
taxi
merced
revealing
deployed
muham
##gor
##ubar
twins
reop
lovely
emphasis
presentation
revolutionary
wings
hometown
##eff
carolyn
transcript
aol
reign
liverpool
fright
yoga
hackers
fastest
perception
restrict
halloween
hans
chile
confed
agreements
infection
municipal
soup
puerto
nam
reception
##print
schm
vegetables
mario
filling
param
##pc
ratio
leak
literary
convert
wreck
pilots
lan
distributed
frankly
appet
occupy
130
misc
##ateral
accomplished
nazi
accord
##inction
##stan
contribution
authorized
sanchez
##urt
respectively
martine
ps
assigned
improvements
##owned
intrig
sized
seah
sympath
chiefs
insurers
##oven
postseason
southeast
pere
##ardi
verification
ling
impose
##active
danny
empower
##step
sudan
risen
dent
##igen
debris
##zed
##utical
observers
lauren
##ollah
developments
renewed
nigeria
shifting
kend
detective
vaccine
pand
implications
##ortions
hungry
##ean
isolated
disappointing
helm
collecting
mck
alarm
suite
##writer
sustainable
leaning
patt
considerable
##aceutical
formally
maintenance
raf
nypd
boots
mog
chips
##eria
keys
prelimin
##icked
91
vigil
fingers
##eva
nickn
##mons
horses
demonstrators
##sein
chev
resur
suggestion
##ante
##bank
fract
absolute
lebron
budd
enthusias
##ji
graduated
##estone
##ando
yale
##cs
correction
mansion
scout
bra
cram
intimate
delta
motorc
lighting
onstage
kal
obes
cheney
confusion
rams
switzer
80s
bun
##books
stephan
zuckerberg
blond
friendship
angels
##aya
caut
##itis
slim
deciding
hike
dot
affili
lindsay
actively
vintage
##ctic
##bag
suv
troubles
##ran
clo
lamb
happiness
obesity
##40m
presumably
cum
minimal
prescription
editing
##lev
pollution
gore
murdered
##ken
sounded
difficulty
m6
candidacy
ral
adequ
rises
rushing
escaped
##uded
risky
sole
##ailed
hir
federation
##ifice
regarded
clever
fundraising
till
seahawks
##lett
viewing
blues
brig
unrest
##fty
exports
opposing
listing
storms
blunt
evangelical
tigers
steal
##auk
occasional
strongest
intercept
##isk
fence
osc
lun
212
embraced
gaining
consolid
##orable
saints
tong
moreover
endless
martinez
taiwan
sha
mason
cleaning
##ylum
##eu
youngest
enthusiasm
interrog
rolls
skeptical
inspector
gala
caption
brotherhood
harvey
##000
associates
intelligent
fascinating
kel
workforce
incentives
##onna
justices
kilomet
accessible
burger
oversee
passionate
##ieties
technique
##hard
instrument
dispar
finishing
cousin
asylum
leaked
leaf
freshman
elaborate
nashville
undersc
richmond
eman
greens
blogs
##oker
shooter
bite
approaches
swept
melt
founders
honestly
costly
nascar
switzerland
boxing
operated
glenn
locals
famously
visa
balanced
assuming
seg
slip
##anth
merkel
##itudes
finale
password
brexit
herald
overtime
shower
primaries
##theless
marcus
bones
plaint
##dale
##ocation
intel
drought
bias
cocaine
mohammed
sends
##ulty
nevertheless
excitement
dian
sufficient
julian
##chat
promoted
moh
taxpayer
preliminary
##uman
186
equipped
initiatives
draws
submit
unnecess
archive
##piece
declining
speakers
blair
laptop
floors
##iah
landmark
stroke
hacking
pharmaceutical
noon
stepping
cens
##840m
mercedes
##estig
artificial
indianapolis
##addafi
understands
##jj840m
##yzjj840m
m6yzjj840m
bic
muhammad
junk
wade
server
broncos
##arez
catching
acceptable
monica
contrary
1982
sweat
dated
outfit
bak
doug
disclose
consent
array
pitching
hearings
##ppo
##itute
riders
flick
glasses
census
argu
mete
##ogether
18th
treaty
massacre
##uting
accountability
1986
ebay
autonom
tougher
##uces
koch
pork
kasich
##itated
bitco
newt
disturbing
90s
booth
peters
##oca
hp
absent
towers
moss
stal
dell
luke
mubar
cler
dolph
hatch
prayers
congrat
lasting
ashley
superv
unch
endorsed
peterson
shiite
topped
jeans
publicity
distribut
gw
fitz
##olo
admir
dug
unac
3d
disg
infected
secular
##aying
##elihood
##eled
basement
exclusively
merger
mubarak
ahmad
veto
pursuing
adap
mandatory
backup
##wick
genes
coastal
magazines
##hop
reluctant
folk
fancy
##ipts
##daq
inters
##iary
periods
jumping
lenders
karl
##market
wol
blown
contractors
temporarily
provisions
##usting
antib
oliver
releasing
halt
hannity
rocks
nyse
lucas
focuses
freddie
##roc
##osc
tablets
drops
analyt
barcel
fails
fundament
furious
reson
expertise
brave
accountable
pursuit
departments
alf
graduates
hiv
recipes
karen
simult
joel
acre
countless
avo
tribune
1981
simultane
poster
loses
essay
dyl
campaigning
courtr
cz
altogether
##acies
interven
inappropriate
upgrade
bankers
mcm
memorable
digit
willingness
conflicts
transactions
bacon
nutrition
##ailand
spends
linkedin
pie
throws
mails
oun
wondered
nasdaq
courtroom
##zi
grat
maintaining
participating
silly
cox
interim
feeding
duncan
derek
victories
cocktail
##mers
aleppo
##rated
##ullah
belgium
##uity
tier
blackberry
aap
ellen
##unct
##icism
blocking
advisory
apologize
parall
postp
ibm
sink
recruiting
permit
administrative
lemon
lyrics
giul
##iki
pressing
format
avoided
thailand
russians
cros
walmart
lasted
monument
##zai
meantime
safely
suspicion
secondary
underlying
contributing
chairs
chains
##ateur
jav
##jud
astronaut
montreal
##iciary
fierce
itas
enrich
sciences
proceedings
ri
barcelona
newest
nicole
finances
churches
dressing
replic
casting
hussein
revised
klein
nominees
nightclub
popul
suspicious
arguably
##hill
naval
rocky
##erable
##inson
bran
stays
stereotyp
mant
##riel
olive
poland
##urity
coat
wals
printed
mortgages
mend
##ads
##ernick
importantly
releases
resource
shifted
##criptions
purple
mysterious
output
lengthy
##ication
precious
productive
horm
attendance
jaw
traders
suburb
backlash
##owitz
undert
gardens
huff
weiner
tradem
##rians
refusing
nationally
dough
strain
extremists
terminal
##report
dealt
##etically
libyan
packers
assured
leverage
formerly
##oh
donated
dubbed
rifle
explosive
sooner
fueled
##turn
tuition
musician
shangh
springs
##rome
justify
concuss
grabbed
180
engines
proph
theor
pew
incorrect
doubts
##onduct
katie
medication
fits
1970
climbed
slavery
erd
cute
lone
##mare
transpl
ipo
##bage
##held
boats
containing
bennett
operators
shoe
brist
jefferson
operates
offshore
rage
##pear
infam
grants
huck
combine
borrowing
ecl
screw
transformed
routinely
orth
isa
1985
hem
##anka
salaries
profitable
dana
reyn
##encer
suburbs
loun
##13
operator
bg
championships
germ
dame
shanghai
py
subtle
logic
adjusted
linebacker
tends
##space
ais
executed
dirt
##feed
apologized
displays
imprison
qb
trace
confer
##tering
hello
panels
unity
favored
julie
examine
declar
sentences
shifts
##inging
successor
crop
inbox
ballet
philippines
briefing
bands
vert
##dled
rit
heck
rah
brib
filmed
distant
introduction
kaep
chin
valued
butler
replacing
##mans
missiles
samples
##ros
powell
1976
stu
ore
piano
excessive
nether
##rane
buses
mamm
organizers
quot
rockets
cogn
gown
venezuela
fiance
faculty
errors
##ader
jewelry
##zb
rings
sellers
lobbying
propaganda
loyalty
colored
capabilities
##shot
nominations
hij
investigated
diagnosis
parenthood
nons
considers
slic
uncover
programme
fashioned
shakespear
ker
yields
kabul
##ration
offerings
beard
scottish
stabil
oprah
overturn
kaepernick
minorities
shaw
bug
##oids
bombings
burr
trek
casey
tropical
jong
amanda
gradually
mors
acceptance
nightmare
1987
occupied
70s
tunis
marl
wip
angela
venue
catherine
refin
leap
exped
##ecca
jama
celebrates
##avez
gorge
gabriel
processing
ont
preventing
##through
##ishes
counties
jesse
fever
brush
honored
demonstrations
hass
watches
surveys
gibson
colonial
refr
exploring
newton
blew
##hor
alice
##eryl
urge
nets
meteor
oxford
##aches
roose
aggressively
chavez
micro
turnout
sacrifice
castle
##umble
##aka
gaga
wines
productivity
bishop
oscars
poorly
cater
##unted
styles
customfields
physician
compassion
examined
touchdowns
statue
breathing
honda
scope
pedest
lgb
hilar
bacteria
nebr
timothy
pile
##alez
gro
jake
##ecraft
embarrassing
walsh
laboratory
cargo
reserves
##gom
##opes
relent
shah
insurgents
hoff
performers
clashes
gau
neighbour
stranger
samuel
greatly
edited
mentally
spreading
immune
mul
transaction
structures
strang
whistle
farms
montana
##idal
instructions
£2
##anim
incumbent
##bu
upload
accum
confirmation
witnessed
##doch
bapt
vanc
##omy
strengthen
cdc
abandon
##14
supposedly
inevit
beats
dip
##anke
wears
joan
yorkers
##iley
##annon
nursing
certific
##cha
itunes
tut
##gio
refres
chemicals
##velt
lgbt
manif
um
novels
battling
removing
peer
kenya
##hy
cinema
tide
failures
hut
hydr
rosen
piv
indo
preparation
##izable
slipped
wishes
cel
dealer
imagination
jpm
125
##gt
##ulu
hughes
protein
##net
lightning
lex
##antan
murdoch
incentive
nasty
hostile
rhyth
heated
##identified
unemployed
sr
aub
montgom
duo
##ouch
cotton
gaz
damages
evan
ht
rewr
costa
alph
airstrikes
duties
ottawa
tribal
##offs
radiation
1964
##affe
exhibit
cf
tiss
runners
pearl
##eling
##odox
determination
diplomats
colbert
neighboring
alternatives
enable
gonzalez
##onic
##eastern
flames
nebraska
spraw
tunnel
leh
noble
palmer
chand
confidential
approaching
genre
defender
circles
##vp
realistic
resolved
110
oliv
compliance
penins
swedish
remembers
barnes
ate
condemned
mlb
midst
snyder
##ouver
delicious
threaten
unfortunate
ces
logo
entertaining
smiling
##70
schumer
##nity
##parts
animated
bened
prestig
alban
##vi
lohan
##marks
spare
unle
grammy
caval
wool
wang
conducting
160
ralph
breakthrough
dylan
roosevelt
vancouver
damaging
##qr
1968
cyr
dresses
ventures
routes
2020
dia
tasks
ipod
fron
scholar
labels
##anthrop
##pg
##onsc
##ener
ambul
60s
horizon
fog
browns
crackdown
brag
https
spike
wheels
enhanced
clem
matching
cem
firearms
##fish
unrel
inspire
separated
pd
bulls
intensity
sier
11th
thread
carp
prevented
##asm
grows
israelis
wounds
blogger
affiliate
avoiding
baths
coron
##rod
##rising
electorate
freeze
julia
credible
indictment
prompting
##istically
affects
tattoo
disgr
fines
margins
##irect
transferred
##stairs
premiums
joked
marie
rodgers
netherlands
cares
earnest
hik
slump
wikile
##fr
startups
counted
##ogy
seniors
msnbc
vick
lovers
atop
trafficking
couch
hardest
margaret
hitler
grandchildren
financially
photographers
invite
donor
evolved
montgomery
joins
peninsula
instantly
austerity
ideological
##ikh
##di
recovering
millennials
counterparts
persuade
kos
offset
searches
eis
vic
aven
mobil
bridges
advances
##aukee
##eus
snapchat
##ourt
budgets
registration
enhance
teammate
pronounced
convinc
1972
satisfied
civic
rust
##19
seller
guantan
##breaking
mug
##vo
colombia
##wall
illustrated
emmy
takeover
1978
nicholas
jurors
capitals
nost
chad
cough
##oko
asc
proportion
computing
rides
ing
##ranean
aired
polish
ferry
indians
collar
nuts
guantanamo
elegant
revenge
##ression
rescued
obsessed
columbus
protective
sadly
##ipper
mills
defendants
nok
secured
wikileaks
seas
alz
cigarettes
disappointment
sake
ineff
##iosity
fond
exploded
respondents
optimism
missions
bargain
poised
1983
perez
jab
stones
incar
##kshire
##itr
marines
midd
socialist
trusted
produces
continent
naz
influenced
acquire
reaches
dependent
demographic
##insky
sierra
##mun
pediat
reynolds
lesser
homosexual
kit
eyed
converted
objective
boring
climbing
ain
peng
##xh
clara
##kes
wales
unnecessary
curb
contractor
wrap
grip
manufacturer
andrea
hostage
fitting
supportive
lamp
trademark
documented
bib
##gi
sep
tanks
##agr
##struction
advertisers
accusing
reactions
broadc
zh
villages
pale
bernanke
cure
enforce
slave
189
external
beside
##oa
plag
##far
bryan
ultra
duch
##borne
restored
randy
adoption
ltd
##uration
jolie
denial
trauma
##berger
janet
bmw
lawn
crunch
harlem
eddie
flexibility
vincent
milw
aa
pine
comcast
michel
subscribers
##yon
fict
##e9
charleston
stunned
##reach
highlighted
probation
abstr
futures
transmission
##stated
revival
##ais
snaps
starred
indicates
packages
wig
physicians
ravens
wim
sunny
tyr
whereas
georget
milwaukee
bitcoin
demonstration
transparent
cage
misle
functions
##term
desperately
ballots
landl
##auer
##ci
giuliani
parliamentary
##quit
##htag
##lu
whoever
shoulders
withdrawal
arctic
glory
succeeded
aesth
orchestra
psychology
offseason
##rina
institutional
rewards
kin
fathers
##inding
territor
daw
lac
hashtag
biological
damasc
##anded
philanthrop
shakespeare
settings
mcn
confrontation
warehouse
angle
carrie
dignity
dread
##gian
oxy
##aky
timeline
shep
libert
lynn
themes
hypoc
pitched
crisp
##impse
stealing
creek
rim
1960
glimpse
yan
steelers
wherever
##chen
bil
jung
monkey
spencer
charts
discrimin
kam
floating
grief
turmo
arranged
##alt
historian
abdul
fidel
semif
divorced
greenhouse
unaccept
turmoil
terrific
##attering
##comes
references
damascus
##onia
##abee
felony
martha
stole
##idi
morm
lloyd
weighed
jill
receives
workout
bio
urg
siblings
trainer
abused
shorter
flower
urgent
ditch
clarifications
madonna
##52e9
bg52e9
##xhqr
bg52e9xhqr
##agne
triggered
##oly
##adi
chant
imagined
##ogs
toilet
luis
staffers
populations
xbox
occasions
protections
thorn
##80
##watch
rankings
fossil
pav
dispos
accommodate
##16
amn
##quez
##uto
deterior
epidemic
colorful
provoc
jackie
bearing
aspir
hew
delivers
designated
quarterly
deficits
abbott
technically
theories
beaches
isolation
phel
melissa
mounted
eliminated
unsp
predecessor
ancest
invitation
##ophob
redd
detainees
##udge
confronted
##ican
##try
ideology
tooth
linda
robbery
existed
experiencing
beast
undermine
ears
autism
pickup
defendant
removal
bronze
privilege
ambitions
attributed
##tains
##iances
cov
lethal
cooked
lease
diana
poetry
panthers
simultaneously
incomes
solic
mint
blu
##itate
musk
telec
##loe
brien
condemn
pix
georgetown
gambling
bachmann
reim
jeopard
rays
sentencing
dems
breakdown
upside
costumes
teaches
ja
spa
carey
favorites
awe
pockets
seeds
responsibilities
severely
laughs
20s
moms
stroll
advers
360
directions
##guard
museums
dividend
lump
salmon
goodby
1977
graduation
notorious
diesel
accent
slowing
sticking
##ensively
1967
shuttle
benedict
guilt
ot
##val
##rie
blaz
worlds
lottery
miracle
contender
serial
pater
##lar
1969
manifest
nathan
archives
info
##ecurity
brains
patriot
sheen
ethan
crashes
survivor
drafted
gol
underway
staged
tah
qatar
arrangement
contam
legislators
rack
precise
cautious
photographed
portrayed
nokia
commonly
thrilled
thresh
contests
inventory
exploration
transformation
dangers
messaging
##gregation
themed
rallies
albums
##archy
chor
alzheimer
applause
lucrative
decides
immun
redistr
cups
barrier
##wing
shorts
chore
difficulties
sculpture
colts
factories
christine
##long
osama
pierre
juris
leonard
##earing
notre
erdogan
##afts
declare
##iler
infamous
savvy
##idt
richest
##ilia
##roy
##issance
lieuten
bah
##fs
##pless
##osy
recyc
reviewing
lover
##ptive
obligation
##enter
reiter
##erning
borrow
denies
unacceptable
ripped
inevitably
##hart
complaining
##matic
detectives
unbel
extremist
fleeing
rut
##olics
spouse
bullets
staples
outcomes
geneva
trio
wand
quir
1973
##week
emanuel
bros
nurses
casualties
gallon
##hot
borrowers
rehears
1975
philosoph
barriers
dys
stub
yorker
##hem
lesbian
endang
sponsor
ahmed
syndrome
##iour
rash
mathem
norman
singles
##bec
brav
butt
krem
powder
inspiring
curiosity
dess
prosperity
volks
titan
litigation
rubber
royals
blockb
prisoner
##wagen
component
maz
easter
matched
emotionally
huckabee
processes
##lements
dolphins
ankle
viable
tommy
gorgeous
magnitude
betting
contempl
rico
pole
kicks
touching
possibilities
bomber
sara
horrific
clouds
smok
shortage
mediter
grill
borough
##istical
minus
barrels
milan
crist
pivot
wheat
erupted
ink
deliberately
charm
surveyed
unanim
tire
hd
bullying
nude
mandela
tuck
testify
slaughter
crush
pund
barcl
spurs
dual
##atics
forecasts
crimea
kills
commem
classical
competitor
declaration
##urance
donate
searched
manages
katrina
##kind
joshua
acid
strangers
contacts
zika
starters
sacrific
revelations
meter
melbourne
controlling
devil
cyrus
explor
delaware
amateur
cheating
##weather
opted
##grounds
gilbert
##mouth
timber
browser
slowed
karzai
adrian
governance
applying
anxious
intentions
raped
ced
##othe
anytime
sketch
louisville
troubling
arnold
skip
legitim
accidents
##mitt
metaph
ensuring
kicking
liberties
mediterranean
banner
components
tsun
emma
sanct
heroin
ethical
narc
pets
baldwin
favourite
airplane
majors
favorable
appla
freel
predictions
breed
##eem
##icul
denying
##nut
spac
highs
##anor
credited
kiev
exceptional
amnesty
##stock
sections
ern
athens
##losures
##ao
##imm
trades
nike
surpass
unhappy
cannes
fatally
mvp
jpmorgan
greeted
bashar
credential
gust
##uccess
vessel
2nd
steph
##brook
laughed
##eta
embed
1965
introducing
dorm
lifting
mim
downturn
petro
reflection
motivation
##ologically
commodity
##otive
##aser
quotes
flexible
closet
worship
robertson
warns
kris
murders
separately
##bish
overr
12th
permitted
au
mistaken
volkswagen
administrator
instances
technological
fallon
placing
reconcil
devastated
shaking
participated
##imited
invis
foreigners
##phis
printing
misd
##iating
reminds
electrical
connoisseurs
tate
comics
farmer
significance
soda
##su
##grad
biography
pean
invented
##roe
750
insights
kap
##occ
lenn
raiders
hatred
##ucci
snip
federer
creativity
villa
productions
unsuccess
##aj
vikings
spears
gossip
mold
layer
wives
believing
##orius
exagger
hott
broadly
railroad
sham
blend
101
superher
obligations
curve
happily
extending
travels
stuffed
conj
princeton
challenger
unlimited
pengu
##apper
defer
beans
##bin
garbage
conclusions
patience
##tor
wrongdo
petra
identifying
masc
cigarette
marin
##retion
threatens
nun
ze
intensive
disputed
likelihood
refund
##ugging
penny
fraction
brink
goodbye
cemet
cheek
##erver
gesture
mirr
##oos
memphis
booked
committees
prescrib
portraits
viv
delicate
eug
sgt
##beit
1974
uprising
frustrating
goodell
chim
sectors
phelps
##itively
convey
unse
persons
reinfor
tolerance
bride
yours
shareholder
##oub
christina
steak
unidentified
##uber
porter
##arming
proposition
steadily
declaring
liability
comply
topp
skilled
slee
limiting
wend
applies
enrollment
##zo
alerts
##rad
noah
affecting
organizing
cemetery
rivera
catholics
##iop
thirty
practically
chefs
pleasant
contrace
connecting
deserved
launches
firmly
##boards
clown
pepp
##awl
##eason
proving
cla
identification
forbid
galleries
##mont
convincing
##losed
dock
##ovich
organisation
slice
dominate
mls
crab
tsar
robots
marriages
tib
slammed
stiff
detr
carroll
2018
stripped
tray
sharon
implemented
outrageous
rous
##ocument
caring
refere
caucuses
fragile
albeit
connor
judiciary
restricted
##sl
intriguing
laying
##bach
integration
##lee
beckham
outright
divisions
##ptions
batman
comparable
pont
sof
##press
norway
14th
partial
charitable
abund
##quer
##iox
preseason
adoles
assassination
hitch
attitudes
tul
arrangements
##drop
speeds
permits
mentor
ace
lacks
marginal
correctly
##amped
integrated
enlist
instruments
shelves
interpretation
listened
tales
applicants
spider
slot
tracked
##acent
reckless
caf
nfc
suppose
rebound
helicopters
flesh
contenders
thumb
##achment
disappearance
##tw
##ounce
surviving
tops
eagle
plates
condo
bonuses
filmmaker
450
snapped
mayer
administer
homicide
cer
stored
parked
framework
revis
behaviour
glor
spray
##thouse
rebounds
owe
omar
##aria
weekends
##89
olds
##ifully
##stitution
tornado
skel
anthem
cun
fior
occupation
ense
scare
misconduct
silk
pitches
experimental
minne
luther
jeter
astronom
slate
distinction
##ocumented
champagne
ceos
navigate
diane
supplement
neat
midwest
kenneth
unusually
undocumented
soap
indul
hunts
##inos
ry
peg
attackers
portugal
magical
gps
balloon
bits
explosives
unpop
stephanie
seam
demol
hazard
examination
wary
cherry
warfare
sometime
proves
flooded
##ums
##asses
##ieve
expressing
maneu
medi
meyer
assignment
abra
whitney
beings
architects
##len
inhab
recount
manuel
brett
##ecd
facilit
vari
benchmark
minneapolis
benz
loop
burke
pom
criteria
vest
customs
ucla
donat
lens
dose
superstar
prejud
bucks
hod
##asse
bing
opener
fcc
##iott
##erb
fargo
kindle
nostal
pirates
helen
boundaries
celt
collections
wrestling
lighter
walt
tender
buys
##respons
troop
capitalism
fifty
sympathy
aunt
hover
drill
15th
berry
dissent
partially
unbeliev
lips
niss
levin
fictional
swall
ambition
separation
dum
accidentally
##arity
restrain
sacrament
feminist
wholes
troll
sheets
flawed
indef
selfie
kremlin
overwhelmed
vand
instr
infections
purchasing
jurisd
pause
heal
languages
##omic
weaken
merchand
switched
incons
leagues
boo
cathed
##agh
dispr
wrongdoing
inflic
subsequently
zomb
yankee
##inis
valentine
centered
expend
violating
morsi
##strom
wildly
meters
provinc
gren
dubai
belgian
##uffed
unconsc
threshold
hezb
dragged
negotiated
cort
##around
lanes
vivid
averaged
oy
analytics
##aho
unpopular
refers
installation
##edict
tricky
lounge
pistorius
##gel
paraly
##ml
iraqis
##holders
identical
hayes
cousins
relied
indigen
ceremon
stagger
##ailing
bloc
wrist
bosses
damn
gregory
lance
quo
bargaining
richards
mounting
rey
experiments
newtown
puzzle
grain
creditors
donnell
thoughtful
alexandria
weighing
servers
seth
surgeon
unconstitution
dancers
antibiot
##enne
amen
retal
##houses
orthodox
##usky
charming
parenting
heir
darkness
beng
supermarket
venice
compiled
tant
catches
emphasized
appetite
##60
hypoth
gravity
spur
slower
disputes
##bledon
cope
sunset
mosul
##pit
gunmen
encry
chemistry
volatile
styl
attendees
chambers
assembled
organize
throat
shouted
witch
automob
satisfaction
comparing
surfaced
indigenous
recommends
wes
boasts
forthcoming
##li
michele
groom
nonsense
##eh
precedent
henderson
lacking
labeled
wimbledon
pant
backyard
##isco
blowing
17th
painter
##ocaust
awaiting
hilarious
##ski
inject
corners
##iman
disability
##icy
ellis
##isman
substantially
washingtologists
jailed
elevator
dunk
intend
earliest
oriented
mohamed
derby
##eur
tissue
mouse
maid
tsunami
answering
hr
##low
##km
holocaust
unst
hurting
audit
hezbollah
richardson
proceeds
synth
resent
##uating
maintains
zones
##von
##baum
heb
sheep
401
1st
bend
barclays
healthier
attraction
##lon
pills
raz
recommendation
passport
##annie
aisle
##part
donation
vanity
retiring
llc
evaluate
clips
##urer
concerning
elephant
essence
dvd
##icting
discretion
xi
batteries
##xon
chill
separat
rup
vendors
inex
amp
raj
##68
multim
##erness
buddy
##ationally
enduring
abraham
1971
fortunately
riv
sequel
hospitalized
dive
disastr
tags
##words
bast
overly
destroying
appreciation
spacecraft
clue
enabled
automakers
surround
levi
declines
subscription
guided
##umed
investigative
kidney
##ellar
refusal
##rep
explosions
020
worrying
hollande
clooney
billboard
posing
brack
leaks
unarmed
##eon
belongs
stabbed
istan
inexp
shin
##ugs
outsp
mi
andrews
##urry
relying
##chair
orbit
defenders
##ovan
oxygen
loos
convenience
iphones
##orth
fluid
tense
##orton
cott
quad
misleading
crawford
sergeant
akin
intends
administrators
ontario
##eca
formation
assists
lonely
lied
archae
newark
lieutenant
clues
##leen
wield
idaho
istanbul
sting
##otherap
fireworks
nab
reply
ignoring
limitations
fundamentally
nadal
thrones
##igroup
steering
observer
##world
##olly
debts
sprawling
nag
counseling
helmet
medals
globally
rebell
kor
neal
rhythm
justified
depressed
hs
kidnapped
zach
defining
mogul
diaz
##aco
drake
waist
tsarna
##erick
automotive
##attled
rena
##uously
invisible
##isers
bailey
patric
##vet
cardinal
qualities
clarity
diplomacy
reflecting
shouting
secretly
rex
complications
consumed
displaced
independents
sherman
outlet
treats
algor
rodham
confederate
affiliated
doping
watchdog
poured
##asso
##ladesh
abrupt
util
nl
jenkins
suster
affection
cultiv
hottest
holders
winston
##okovic
cripp
thai
tat
flowing
levy
seaf
##iments
pars
cookies
punk
merit
harvest
canal
##mod
##eep
texts
shades
claire
grapp
lud
migration
agricultural
djokovic
algorith
##ulent
voiced
oral
ende
##opsy
##entions
corrid
hollow
skull
bangladesh
echoed
apt
bunk
calculated
bree
##yang
##una
susteren
##abad
broadcasting
broadband
weaker
spirits
certified
sacramento
christianity
prohibited
premature
tendency
tongue
solidarity
mature
busch
pretend
##ibutes
tastes
##rooms
##pin
licenses
##fax
##olved
rover
traditions
sacred
inability
##isse
carney
honors
saves
homer
isaac
pressures
manual
pilgr
courthouse
gotta
physics
backers
16th
hopkins
endeav
citigroup
gymn
mead
cement
showcase
enact
provincial
knees
halfway
##alled
idiot
branches
oven
##uum
exhaust
##tedly
medications
ordering
cuis
desktop
##perform
tsarnaev
lend
somalia
pipe
commissioned
kan
##etical
prone
delhi
unconstitutional
reloc
quake
questionable
nerve
judging
exotic
freely
relaxed
consciousness
utterly
frost
infer
encountered
excer
tactic
jared
overwhelmingly
prospective
chasing
clinics
brass
embarrassed
schwar
occurs
##frey
toe
cathedral
kau
representation
1963
ammun
terrifying
bans
treasure
strictly
vern
##ozy
chevrol
commercials
parallel
bh
bored
laughter
conferences
lindsey
favors
coy
insert
##ultz
endured
televised
flavors
##uv
creatures
autumn
airways
creators
adaptation
repay
paych
lows
matthews
conclude
barred
tossed
seoul
serb
sandusky
canyon
##gling
duff
ambulance
oracle
elevated
stunt
dayton
boycott
charism
mcg
newcom
tweeting
stair
fiber
##dles
##bound
ammunition
tin
schem
bristol
famed
credentials
##mith
regulate
sticks
saddam
nintend
dictator
enthusiastic
soaring
chew
assaulted
advantages
schmidt
##iao
mps
resil
halft
sequence
mistr
transplant
jacobs
thoroughly
bb
hoffman
glee
##osystem
pab
##aven
fixing
rih
inacc
1930s
splash
beds
britney
mixture
##inous
easing
cybers
bam
feud
quint
concerts
mccl
##dling
curtis
eventual
acknowledges
enacted
##nik
closure
hated
##zh
##anium
hust
crushed
albany
adequate
##hear
scattered
lacked
foreclosure
##iffe
commitments
simmons
maur
generating
keyboard
nintendo
##ressed
pf
suppliers
##aching
commemor
cs
unwilling
hence
ni
##oust
shook
tricks
summers
sark
guerr
establishing
revelation
mega
170
halftime
retro
forgot
##hani
envision
##astically
##ozone
astonishing
disastrous
alib
##ensen
stuart
cramer
herman
freezing
humble
khal
insisting
##igo
seated
##etics
dysf
##owdown
schne
confusing
politico
structural
chevrolet
prisons
charities
##18
blessed
##bab
##uma
##usters
baptist
yang
prediction
dancer
blockbuster
oval
flown
capability
umb
promin
suited
rebecca
burton
##rorism
##icia
ports
abuses
ler
brat
psychologist
wax
posters
affirm
imminent
latinos
instinct
outer
bats
pard
eliminating
underwater
##awi
colonel
adapted
offenders
energ
financed
enrolled
supervisor
lowered
decrease
##poon
exercises
billionaires
plaintiffs
arrog
mond
td
abdullah
utilities
genuinely
flies
profiles
bets
kaz
unfor
dischar
commanders
sidewalk
##ulates
rotation
imports
scholarship
certificate
scalia
madness
scandals
banning
##olol
handgun
clearing
##ethe
ecosystem
evaluation
czech
heath
allied
irony
orph
stats
rihanna
##tin
postal
mush
##uffle
therm
fren
kidnapping
forens
##usc
accounted
giff
ya
##chron
surreal
hig
voy
convictions
ridge
scouts
pec
francois
cultures
improper
pam
##quis
violate
fulfill
##asive
##sole
lining
tebow
diplomat
dens
dragon
shrinking
##elman
defect
expectation
mig
banker
copper
sic
potatoes
consequence
illum
aerial
vogue
sober
canadians
directing
breathe
volatility
##essa
evacuated
bean
##aha
eurozone
hats
tak
concussion
clicking
codes
ginger
##itative
underne
improv
conting
continental
layers
nissan
confirms
underneath
facial
quebec
gays
audi
filmm
13th
cognitive
nail
expose
garlic
##leep
pulls
assumption
prolong
##ennan
oc
abortions
persistent
fallout
##itas
endangered
##cons
jor
critically
availability
letterman
raymond
trap
hitter
##asha
gul
tory
##game
usher
parole
visitor
professors
##oni
juven
pensions
katy
duchess
cola
subt
##jan
interaction
unpredict
alfred
rus
insiders
petraeus
concentration
dale
lifel
##ype
smarter
patron
handsome
beatles
brokers
clippers
lakes
operational
mes
relies
mell
imposing
superintend
##ulk
fury
delib
tube
##emma
destinations
##colm
reservations
##arians
obsession
handing
vague
webb
skies
faithful
tenants
##airy
suz
sew
##advant
emir
greene
frontier
permanently
prepares
delegate
imperial
vessels
slowdown
harbaugh
##24
ensemble
lamar
knox
bleeding
##omez
harmful
gardner
lively
##ancies
malcolm
bounce
ours
lil
mechanism
inconsist
rode
sedan
farther
widow
til
##eno
investigator
fortunate
loot
unint
drain
sandra
##isy
mormon
##lis
resorts
considerably
stump
##mingham
wald
##liner
templ
meltdown
rallied
console
unm
smiles
entitlement
substitute
usc
amber
refuses
liu
symph
potato
backdrop
fairness
uncovered
brent
deput
stam
birmingham
bain
myers
##wright
symbolic
indicted
discounts
fuels
obstacles
fid
##conn
seasonal
30s
erik
doctr
homem
architectural
sealed
looming
sut
dismant
collision
performer
##asting
cardi
remarkably
dare
##gle
companion
sitcom
horiz
restruct
##forward
##ige
domain
announces
goth
abol
blaze
##fund
conceded
northwestern
abstract
##arded
ounce
##pen
##iri
##lical
##wartz
renewable
lur
freak
sochi
fiorina
baseman
gamb
frequency
rooted
projections
wit
belly
possess
imf
vienna
innocence
upward
sally
##yton
##note
glen
cycl
lith
gomez
vod
traumatic
constructed
moy
pitchers
intact
priests
descend
##aman
##steps
muscles
grades
staten
##shine
##ifting
##abe
thriller
downgr
pursued
uranium
carly
tires
##girl
artic
janeiro
incon
afflu
##alsign
gaw
motive
distinctive
consuming
##etz
effectiveness
##itary
militia
finest
midterm
kurt
joking
healing
mobility
bolster
usage
translate
embark
slated
carnival
martial
wonders
lucy
ivanka
prud
##ellers
##asia
contempt
cind
##station
allerg
branded
icel
likewise
lehman
motorcycle
reductions
decorated
socially
##atra
asleep
grandpar
drawings
nw
friedman
##ophone
yen
wizards
##cut
pools
abbas
##mented
schwartz
assange
fairfax
kane
mau
##had
##ayer
##cale
decisive
hogan
##sch
cheers
determining
erect
marking
implementation
laps
riots
##pack
sensation
sharks
reunion
##olester
gunfire
owed
prototyp
schwarz
victorian
observation
miranda
hil
##aul
##bod
clad
apoc
indicating
eli
hagel
mish
sop
seekers
fannie
havana
sizes
reversed
overhead
refriger
woes
##aga
peek
daddy
gibbs
examining
elliott
iceland
jumps
rhode
aj
stalk
##rera
chrome
traditionalsign
traditionalsignin
concessions
oversees
ard
##alie
merrill
hank
deer
disadvant
##olph
undergo
cantor
dude
doubles
hailed
##bird
stint
showdown
jagu
burd
bidding
balcon
touches
locally
britt
insane
boxer
arabic
monop
sexuality
appealed
exhausted
explicitly
1966
tsa
hacked
hannah
europeans
disl
flint
superb
370
boulev
##liest
mckin
disappr
circus
contend
alv
committing
inflamm
acquisitions
kyl
##ti
##acuse
qaddafi
interface
woke
shir
hax
misunder
sounding
swath
pasta
plunged
alumin
stairs
shine
##alling
vibrant
angelina
clarke
##omon
depl
##found
pioneer
tapped
biot
commodities
urgency
nord
ubi
correl
benefited
positioned
hispanics
pyong
hos
##isans
nepal
unr
mg
supplied
voluntary
feeds
tyson
baked
dairy
##igence
##health
nickname
brend
stalled
encourages
touring
looph
judged
guarantees
##tails
fairy
mae
intentionally
frater
berkshire
buttons
dew
admitting
clerk
neph
partnerships
##osity
counterter
##author
accuracy
##bnb
##itivity
##ules
interstate
accessories
blanket
germans
renaissance
aur
syracuse
##oqu
##esis
straightforward
deputies
abe
orb
adventures
##ados
blaming
origins
settlements
dodge
crus
silva
hurts
prox
technic
solving
sensors
cuisine
surprises
brennan
stretched
##las
trails
specialty
pyongyang
sta
stig
embracing
propon
##77
handy
complexity
woo
respects
##akis
##gence
##lr
##boro
auburn
curator
##adequ
sot
shelf
deaf
bless
relate
squeeze
##iaries
vicious
ritual
inadequ
gerald
statute
jungle
lightly
belonged
purport
##hardt
clause
afterwards
orientation
dumped
crops
##erting
beau
presenting
##borough
heightened
##fk
slaves
tomatoes
washed
sectarian
delegation
##anson
cracked
swan
bombers
vamp
jobless
wan
##acht
monitors
tumb
bowie
input
outlined
populist
kobe
fares
airbnb
condomin
disorders
coleman
##atri
farming
recruited
coca
quarterbacks
compact
specialists
logical
admissions
strauss
midtown
##terior
economically
relentless
bee
boarding
condominium
crises
contentious
stylish
hostages
predictable
incoming
summary
inaugural
seize
rafael
unaware
peyton
##inces
licensed
aesthetic
filib
appointments
travis
composer
gamble
undoub
joh
miley
deposit
eugene
1962
hype
mercury
4th
skepticism
disasters
scoop
damon
disprop
infin
obscure
balk
nh
embedded
##teen
fist
rove
##anton
issuing
cared
schultz
newborn
standoff
accompanying
##alous
achievements
borrowed
bum
matchup
shipped
inspection
##card
impacts
trader
##ulative
soy
##isp
singers
##anche
tibet
punished
##wal
##enched
resistant
##elters
tracy
sacks
norwe
modified
##orf
loser
##otherapy
fals
alumn
recordings
flaws
destructive
vp
##bull
seiz
##oured
joey
confessed
completing
tribe
beers
preference
##imon
recipients
strick
potent
fruits
disproportion
restoration
provocative
fib
purely
nig
statewide
bloggers
independently
stagn
1950
kathleen
##van
quart
talents
reconciliation
cried
haram
newer
enjoys
pablo
##wind
adorable
leslie
lobbyists
digging
batch
cyl
renowned
laundry
rented
##apr
##qual
coh
paths
qualifying
outp
##riet
wallet
barbec
addict
cavaliers
genoc
backstage
188
austria
rejection
parish
flagship
lure
##ainted
pup
manz
185
analyzed
deuts
volc
tended
brow
mayweather
surrender
##akh
chi
prestigious
hawk
extrad
fundraiser
losers
distress
rebuilding
swap
reasonably
munich
whisper
deportation
joyce
##ongh
enters
suing
gav
achieving
zip
sidelines
##mat
unin
sunshine
exceptions
##bone
crick
macy
##otto
podcast
bergd
disresp
moroc
consume
rag
mast
##afe
baking
battlefield
mechanical
pics
debuted
salvador
superintendent
cindy
##ede
panama
faa
ost
exh
stretches
shrink
ki
##rob
kahn
dictators
##orie
whip
stating
hawks
plac
mh
##irst
athletics
bac
blessing
turf
evacuation
dividends
venues
patricia
align
uniforms
annie
madoff
mann
housew
hugely
##fect
whale
laud
alley
dried
##table
##atable
celebrations
panc
problematic
protocol
ecu
chorus
booking
appreciated
floyd
playstation
winfrey
moines
cycling
gloss
precip
outreach
planted
indefin
personalities
gmail
outd
auditor
bolt
fabulous
criticizing
solved
ivan
##esco
automaker
chop
counterterrorism
##unner
laser
winn
catalog
reddit
petty
cooperate
moody
##ifics
##iche
prophet
##echn
spice
underest
terrain
distract
denmark
##asi
happier
convenient
unre
newman
sanford
##plus
airs
practicing
##robe
wasted
saga
cattle
skirt
culinary
grasp
aggrav
coke
marble
rooney
telesc
libertarian
blasted
chunk
unbelievable
alibaba
diving
seafood
ego
huffington
##face
penetr
framed
patents
misdeme
fores
respective
spam
detected
levine
degr
kendall
compr
inauguration
inh
harr
evolving
siege
mcdonnell
estr
undoubtedly
distraction
sophom
inclined
morrison
##aments
forming
##jad
shelters
lavish
summon
pediatric
##arios
paramount
abilities
flock
redes
turnaround
##ilitation
coin
willie
johns
moz
batting
##irez
##with
advise
alarming
syrians
slogan
storyt
##will
varied
metaphor
males
assisted
monroe
gaps
propose
uphold
inviting
anecd
guine
bucket
##chy
welcoming
aiming
##mund
darren
gallup
punct
chapel
outraged
wagner
merchandise
##berman
donovan
shoots
##ellation
riley
indie
specifics
reth
showc
skate
jays
exxon
fined
goldberg
persuaded
gently
mik
outspoken
lawmaker
##rov
proclaimed
dodd
cornerback
culm
toddler
adul
inherited
unnamed
fitzg
ramirez
ignorance
cookie
examiner
fis
##icides
extract
attracting
slick
doomed
boulevard
erupt
£3
geographic
catcher
ecb
paradise
yuan
gloves
translation
##manship
incarcer
gosp
prints
altered
undergrad
chargers
commented
paperwork
soci
glac
dominance
sympathetic
educate
reacted
peps
telecomm
megan
betty
##eday
##enko
digest
disgu
mocking
scream
grilled
serena
niche
conscience
securing
##ceptions
##erals
predomin
##illery
realm
confron
sworn
yo
entity
rogue
plagued
heather
mainland
ruin
weed
semin
thomson
cay
counterpart
amster
autobi
freeman
maver
hail
popping
toughest
grandparents
texans
spotify
formid
reli
favre
naming
volumes
##emon
upstairs
resid
militias
infring
figuring
slept
processed
fry
mahm
preservation
pundits
##efe
##99
gum
vacuum
shepher
##pers
##stick
pall
burgl
yel
predicting
##ieval
thanked
verge
fug
##quin
chun
##sk
sensible
##omi
deployment
##isi
titans
thrive
nol
maneuver
filings
protesting
thrill
publications
surrog
gauge
milestone
nra
spectacle
##azeera
bicycle
buddh
irrespons
##recy
aster
tread
smoked
premise
compromised
cocktails
impe
travelling
stranded
105
##incts
nim
daniels
agu
##ials
##oux
##wealth
##screen
censors
##oding
inval
apprent
graves
##itte
tunisia
notified
acknowledging
revive
50s
unconscious
donna
tuned
objections
wheelchair
lifelong
dynamics
bishops
referee
psychiatric
constituents
##olesterol
cush
guides
embod
indoor
##ieves
##ospher
popped
jin
catastrophic
nan
grin
internationally
builds
liberation
sings
soared
harold
intersection
peop
drown
franco
##usions
offended
peril
secrecy
enab
aval
pierce
kilometers
3rd
jealous
##oir
cholesterol
logan
subd
astronauts
exploit
delighted
inclusion
translated
knocking
rol
annoying
cec
##py
##levant
carne
collectively
trailing
remot
snake
entities
cb
cites
eaten
bruno
policing
fortunes
villain
additionally
innovations
dunn
tying
graphics
amsterdam
deleted
overlooked
maliki
formidable
empathy
nicolas
concentrated
##mi
slides
advisor
kon
tina
colo
##gregor
characterized
battered
pett
yelling
punt
##fly
distribute
inspectors
##worthy
hardy
biology
accomplishments
antitr
terrified
subjected
filmmakers
iranians
someday
irrelevant
kem
playboy
composed
bark
mourning
messy
rehabilitation
##chan
rubble
puck
waving
oath
extends
identities
verbal
licensing
neill
chaotic
overturned
contested
alger
mercy
shawn
bathrooms
valuation
fiat
rect
##kowski
retrosp
##otion
rooft
cannab
responds
##rix
ampl
antitrust
vr
flows
malley
##90
invision
briefed
tol
inmate
heating
complement
watchers
ana
signaled
salon
##goers
gadgets
autonomous
pbs
prag
merg
##ounters
rapp
masses
hoy
reminis
##leum
podium
retirees
labs
pok
##haw
hath
shack
criticize
dic
populated
accurately
staggering
##25
##umbs
diox
coordinated
ming
insurgency
lowering
hipp
ig
celtics
campuses
collectors
##iffer
sleek
satisfy
trent
incompet
dazz
cleric
commonwealth
sneak
judg
undercover
aggression
gin
encounters
##aneous
monte
smash
phillies
spinning
sanction
preval
beautifully
pigs
autopsy
specializes
contention
sina
ort
songwriter
rans
##ipedia
cheering
symphony
norwegian
wint
embarrassment
##points
jamaica
gee
alloc
graff
extrav
##just
bookst
tally
interrogation
dud
analyze
staring
warrior
##oped
suffers
migrant
superman
diary
pulitzer
surged
gangs
pors
instruction
inaccur
stack
sprink
shapes
dart
pes
lid
wendy
niel
##inho
gifted
homemade
expire
woody
rivalry
harmon
aggreg
magnific
##urge
bypass
regulated
katherine
fitzgerald
abr
agreeing
plunge
pon
atomic
##opic
untr
judy
generals
assaults
gast
##zes
reacts
roller
lent
mccart
shade
advisors
hints
##zman
troy
##uers
##idy
ala
##ema
boutique
sights
assertion
satir
unpredictable
proudly
yellen
outsider
hindu
certainty
calvin
pulse
une
##track
striker
rant
resh
##uffs
curricul
cannon
##ilation
conceived
shadows
nate
novelist
beir
middleton
tasting
preferences
handc
marketers
commentators
xl
ousted
##iston
##roads
fuller
cancelled
##raf
gel
clam
workshop
##iph
relation
greet
snack
chopped
conventions
conversion
skype
ethiop
##etto
tb
tomato
brendan
##atem
reiterated
superhero
sarkozy
mong
pact
kerr
##insured
battleground
religions
persecut
falcons
moist
lub
deduct
##iva
dome
kenny
handles
citi
denounced
seeded
repairs
testament
aka
narrowly
wikipedia
ducks
pyr
rocked
measuring
##ouring
1961
capturing
classics
relieved
linger
intol
skew
strongh
paula
hunters
deliberate
traction
abusive
pouring
killers
molec
shattered
cran
goodman
stamps
satisfying
##uch
edges
##balls
offenses
##obs
##rock
##isure
luckily
##rit
homework
raids
ivy
cautioned
hog
lb
reelection
tribes
mice
triv
frederick
##atched
mak
##udeau
consultants
forty
descent
upscale
curs
apples
elvis
betray
viewer
lazy
scam
completion
cornell
intervene
boko
guinea
demonstrates
##oga
admired
scroll
weakened
cunning
toast
115
wreckage
injust
portions
verify
skinny
grabbing
##quest
isil
downward
foley
forensic
booming
weing
composite
outsour
rockef
fount
slap
insuff
strengths
seb
wors
##writing
restructuring
debated
informal
functioning
##uro
atroc
genocide
##tes
despair
imagery
misses
bikini
fours
interactions
queensland
bothered
##cely
##aws
ferrari
homosexuality
barber
haley
owning
overseeing
interrupted
navigation
zim
##quet
kathy
terribly
preserved
mb
##orah
##ipher
disabilities
jazeera
switching
caroline
theatrical
shab
dioxide
cp
##ovy
apparel
distinguished
streams
pushes
##imental
miners
malaysian
forgive
cout
dwar
thwart
listings
kaine
mcl
overlooking
successes
danish
keystone
spite
crafts
depot
vanished
##rats
juvenile
##inarily
inclusive
unite
wished
grandson
semit
rb
rnc
ss
npr
divisive
adjacent
horsepower
affluent
lebanese
pave
currencies
animation
##oppy
container
pt
reef
trudeau
kra
carved
katz
expans
proposing
##leas
trev
scenarios
deriv
dessert
##oan
recons
spying
sadness
immers
disconn
tiff
regain
creepy
fran
rider
##master
lambert
outfits
multip
graduating
##minster
undergoing
ras
sinking
costing
devote
medieval
vander
deton
precision
rigorous
triang
impair
aliens
disruption
petroleum
rouge
##atisf
definitive
spar
plaus
tabloid
ct
##ollo
suck
rainbow
baton
commons
underwear
greenwich
##illac
fringe
statistical
##eny
natalie
stretching
foolish
poem
predicts
##inqu
gods
tackles
##kov
suspend
sadd
freelance
##inth
##iza
##inski
tripoli
hungary
anat
lender
##inejad
irving
sig
unreal
boris
lingering
mortality
liquor
picasso
wu
##committ
embar
transc
sank
jackets
weingarten
robb
nazis
prizes
beirut
uninsured
chatter
inadequate
sophomore
pairs
##brand
waterfront
175
cite
##ieving
hect
aluminum
ramos
conditioning
comey
chilling
endure
slew
##unic
##riage
baff
ignorant
indirect
singh
fah
nicely
##osaur
glance
marched
resisted
ivory
disrespect
nud
admire
designing
embry
##ahe
mandated
concludes
hassan
shannon
debbie
bernstein
hast
amass
averaging
brewing
sag
emphasize
paired
rouse
airing
##donald
##utt
broadcaster
bergdahl
touted
##atorial
belonging
gand
hikes
damp
wired
startling
necessity
myan
advancing
boomers
steer
rubin
ruined
unexpectedly
griev
bullpen
jenny
##went
##zel
mines
reps
recruits
rockefeller
dos
##cats
perkins
smallest
packing
portable
specialized
tumblr
commute
sideline
erin
frightening
huntsman
##22
shaping
attacker
glamour
overweight
signatures
depp
finn
beneficial
spont
dill
contents
observations
cannabis
myanmar
immense
affleck
weighs
naive
rewarded
##troll
bore
240
rd
historians
turb
##qq
slack
geoff
grind
##itating
dispens
florence
gospel
pi
incorrectly
tightly
leo
alleges
leisure
assumptions
myspace
vulnerability
##aby
brock
durant
trayvon
scra
cellphones
##sex
captures
patrons
extremism
rents
therapist
retaliation
##ustomed
beverage
slash
##rella
strat
unim
recipient
liberia
cartel
##otle
remotely
miserable
arbitr
outdoors
gestures
rounded
unsett
##azzi
minors
##ulsion
automated
##apor
imported
receivers
sul
shaken
grounded
tapes
shootout
comparisons
cm
kre
mayoral
unrelated
lah
hait
bro
buzzfeed
hyd
enterprises
accuse
suns
antibiotics
##enstein
wardrobe
ez
aligned
kimmel
##patrick
pens
##urg
tran
exec
compliment
deposits
realizing
injection
manziel
##ospheric
submar
outsiders
instructor
##rin
mcgregor
lace
blasts
##ensible
wyoming
blonde
##olent
wiped
anticipate
##wire
slog
anticipation
mohammad
behave
sovereignty
ecuador
lig
obese
interrupt
mund
assure
fow
diminished
leonardo
cadillac
sanctuary
vegetable
brutality
coincidence
slain
##uri
alexis
academics
hobby
vitamin
dishon
##ovo
observe
liam
##uggage
##aton
behaviors
tapping
dement
doctrine
pals
vault
housed
##ridge
dole
interference
halls
##gger
peoples
##cepts
##usp
tuc
theirs
northeastern
contestants
ahmadinejad
chapman
destiny
sci
##jah
linking
torres
tart
curriculum
twisted
##lake
readily
bulld
##ido
rugby
mentions
##size
polo
cybersecurity
##mental
bagg
shrimp
monitored
legitimacy
rebellion
advises
gem
upheld
gins
187
asserted
exile
pumpkin
twil
##amy
reliance
infectious
alumni
vince
backgrounds
lax
vacant
unpaid
sided
longstanding
loft
elbow
instructed
pornography
sums
warr
recognizing
##nia
characteristics
praying
luggage
balancing
consists
fatigue
pinch
owen
beta
eyebr
collector
boosting
ladder
ubiquit
entries
unified
envoy
melania
##uter
realities
porsche
mama
uh
texting
thriving
##drew
sway
anthrop
##kok
demograph
reinforce
underwent
nass
overthr
dont
negr
##places
distracted
tactical
illustrations
afghans
schedules
tortured
ironically
uncommon
tee
alternate
booz
saus
willis
sliding
turbul
onion
farewell
rbi
##sten
creature
settling
maple
pivotal
lanc
leno
carnegie
tract
execute
cheerle
gn
ripp
exterior
##photo
remembering
##kk
bernardino
concepts
##oral
humili
shred
societies
transported
blizz
practiced
cans
corey
sparks
demean
##haus
millenn
ruins
renovation
succession
heavyweight
glamorous
bloss
brewer
hier
penc
upro
cooler
hefty
grud
kristen
purported
aig
bould
##wald
##uled
gallons
convoy
hamm
ubiquitous
curtain
darling
shallow
peanut
##ueling
dang
balcony
snacks
subsidiary
##lain
furthermore
crashing
hiking
mcgr
vaccines
##ui
clintons
negotiation
torr
blows
pg
devils
wilderness
congest
##ibles
pacqu
sculptures
coveted
##ilyn
antar
withdrew
lp
surplus
unchanged
layoffs
cait
void
regrets
##glasses
selfish
refreshing
ortiz
##ucts
commentator
merits
##aque
##elve
logistics
hacker
##anity
saul
ish
##irmed
laf
manufactured
nex
acclaimed
scrap
##reated
coupled
##upp
rude
##usk
appropriately
giffords
stereotypes
understandable
nielsen
1945
imprisoned
mumb
promptly
campaigned
plains
accelerate
feds
shutting
planets
cheered
merchants
nephew
vertical
##hift
aspiring
##ells
sailing
mentality
##aders
bangkok
olivia
40s
brewers
##inform
##igate
##ourse
##iplined
##ori
prefers
##lessness
burg
tore
##atical
dynasty
coordination
hicks
degener
illnesses
##rahim
adele
bland
vigor
stubborn
##gone
defenses
##23
##ju
float
ica
##bands
para
daring
marx
persona
exceeded
fraz
acute
continually
activism
##irable
highlighting
50th
lodge
eco
inhabit
bye
idi
pageant
pedro
behavioral
##ovsky
reasoning
ambig
dilemma
mayo
ashamed
hond
##falls
##izations
flame
cork
dense
neglect
compelled
elusive
pmreport
mixing
vastly
punched
filibuster
pga
recess
johan
depicted
unsuccessful
1959
repeating
landlord
wholesale
playground
##isb
##idav
blanc
polite
promotional
a1
cooling
haunted
mahmoud
##iked
##uba
classmates
pacquiao
##imated
congo
influx
liquidity
recreation
##prints
bigot
lily
neo
smashed
affidav
paterno
##45
##oulos
##ographical
##etcher
pric
leah
shia
absorb
crap
locks
opposes
microphone
audition
bengals
twelve
mortar
defeating
##rington
bureaucracy
aapl
phillip
##unders
##ieu
demise
obstacle
heidi
220
hugo
dwight
##olk
##cor
billed
landsl
reinv
savage
namely
faded
proxim
firearm
microb
swiftly
mirrors
mccartney
flank
barbecue
relating
twilight
##yers
osborne
concentrate
clarify
transmitted
misdemeanor
capped
afc
downside
thatcher
##online
downing
needing
shap
khloe
undec
##after
chevy
cracks
floods
##imeter
##illas
artif
apollo
magnificent
##amel
announcements
proxy
##inda
##elin
kaiser
miguel
disgusting
cv
crushing
makeshift
rabbi
slope
cheat
unlock
tolerate
weiss
abram
expired
halted
machin
illusion
awaited
filmmagic
crook
accustomed
retained
greed
hein
102
behead
issa
##burse
pedestrian
##nels
##mail
##url
kelley
exac
crust
condol
spear
catastrophe
rumor
##proof
cull
honoring
fertil
##inion
sword
grape
davidson
attractions
jacksonville
daunting
hathaway
sands
minn
roasted
recalling
prolonged
peru
setback
presumptive
nigerian
pud
discovering
restraint
stitch
minimize
ingredient
litter
ironic
chast
sack
##eters
needle
emerges
accordingly
##pot
richer
##oof
cynical
exacerb
dominican
rendered
lame
guild
turnbull
nv
purse
filter
melan
withhold
##actic
owes
guessing
deutsche
##ubs
americas
##anners
dnc
##phem
deborah
messenger
##achi
kidding
finishes
wink
laptops
sandwiches
gymnast
kits
bleak
contaminated
sigh
shiny
bikes
##eer
overshad
exchanged
##registration
abbey
emirates
##avi
##heads
unlaw
priorit
##guards
skating
a3
foundations
traditionalregistration
650
##iya
livest
rewritten
dull
ses
conrad
tucked
mighty
varying
garrett
honesty
composition
hooked
gentleman
##ctional
demp
respectful
rifles
singular
kinderg
##arn
functional
##linary
hormone
quirky
##kinson
alp
garn
##yme
reconstruction
transfers
staging
undisc
skiing
baggage
sensitivity
##irth
unoff
steele
connects
banana
virtue
symbols
schemes
chats
ubs
concord
voluntarily
wick
stellar
##azed
battled
contracted
mous
installment
geek
edged
hangs
neutrality
backward
inquiries
mates
runoff
thankful
westminster
cud
jal
automobile
marit
attendant
owens
kraft
peas
prejudice
unb
defends
##dings
thereby
##committee
##enner
grove
cue
traject
closes
##lass
marilyn
cleaner
nickel
ashton
##encia
##unications
##urst
glas
grandd
observatory
dementia
##stead
##byn
turbo
##soever
limbaugh
crafted
mcd
pinter
nearest
hardship
neighbourhood
##endered
amendments
evolve
##ei
specter
stormed
girardi
shrug
nsw
graffiti
##shi
##agraph
kissing
inherent
parental
baylor
protester
bids
##ulse
factions
allegiance
drunken
booker
volley
upgrades
disreg
louise
bowls
phrases
morph
coached
kell
shane
gt
marg
nostalgia
railway
gridlock
##emost
myri
unfolded
artillery
locate
superst
rightly
barrett
barney
distinguish
##foot
##44
contraception
strained
provinces
thigh
##usch
##ichick
calorie
whatsoever
unrav
traveler
brooke
recap
smiled
sinai
##kh
thieves
mcil
environments
typh
##chool
##ulously
nationalist
marching
influences
oddly
accelerated
telecommunications
uss
eleven
verb
ordeal
compares
concealed
irresponsible
unil
paulson
occurring
robbed
misstated
enhancing
busted
annex
sap
fusion
##ea
##ithner
##ignant
spurred
caes
waits
jurisdiction
kob
pian
glow
rupert
associations
##park
fiancee
dab
##inh
ches
manus
realised
suitable
nc
roast
siri
prostitution
disagreed
implementing
prosecuted
1948
##iferation
surgical
artwork
vibe
tipped
unav
orphan
ori
outpost
matur
##athing
snl
forests
mam
speeding
egyptians
abruptly
discusses
saman
##ampton
frances
educators
flickr
bert
##fits
geithner
hammond
jeep
dreamed
fres
appreh
masks
dental
ample
pess
breakup
territories
indicator
coral
penguins
spouses
##iciently
traits
##33
chess
terrace
umbrella
stain
rejo
spelling
alleging
perfection
paradox
comet
gramm
inconven
pistol
shields
##ayor
restoring
boosted
##aprio
foremost
mt
kurtz
glorious
lecture
pry
omn
pains
recreational
rope
warmer
mali
frenzy
slugg
subscribethe
heroic
crosso
spun
outlaw
goalk
redempt
shotgun
##eeper
##ulator
advertisements
plight
tomb
##making
digits
underdog
cycles
motorola
lash
yelled
caffe
##gary
clarks
adjustments
blizzard
##beck
luk
pluto
millionaire
packs
dwind
consulate
employs
acquiring
appliances
operatives
regulator
##nt
allison
perks
enabling
blitz
rumored
ibrahim
racially
qaida
unwanted
das
nerd
##tic
dissident
faux
##emi
kylie
jind
rw
outdated
accidental
stumbled
ceremonies
passive
aspirations
sebast
tucson
##fin
enlight
fries
hyster
grande
##ibr
turnover
seating
gloom
volcan
staple
dicaprio
whopping
chooses
urges
packaging
authenticity
braves
pops
vu
bez
mickey
interceptions
reminiscent
alec
messi
circulation
spree
arbitration
tightening
nina
##laughter
marina
staffer
islamists
madd
placement
backpack
##hydr
persian
dwell
offs
soundtrack
motives
wipe
£5
chairwoman
jihadist
strengthening
teddy
fernandez
bakery
dion
230
kickst
shrine
outsk
excluding
thrust
135
lieberman
myriad
exemption
kram
ng
spiel
reduces
resurrect
interception
##arts
checkpoint
dublin
swinging
pharmacy
manslaughter
##fielder
trending
allah
corridor
belichick
inad
camping
imagin
##enk
surfing
controller
gratitude
compat
detailing
##tors
kun
vas
invention
guatem
amenities
caliber
sync
scramb
segments
freedoms
carpenter
scrambling
spiral
excellence
wong
##iband
baron
passwords
processor
5th
##stra
##ivities
sung
construct
reservation
patterson
organs
mocked
renting
cisco
fletcher
dh
frontr
predominantly
##itutes
canon
strapped
rhodes
fiery
watt
beam
adopting
kurds
vag
##rus
outskirts
poker
executions
cataly
rampage
whitman
spitzer
disciplined
##otheby
seaw
##enegger
confined
cambod
resemble
##keeper
ding
teamed
thankfully
jeopardy
desired
modi
spectators
##iq
syrup
##oj
variations
departed
cracking
sniper
combining
upstate
metres
rains
lynd
sotheby
supplier
eats
fuk
coroner
##amic
hinted
##ck
playbook
ump
##elier
##amese
unleashed
exposing
countryside
loch
##friends
soho
font
##amil
rudy
##urious
bests
interpreted
explorer
sev
##unts
##411
prow
atmospheric
fm
herb
videot
legalization
lis
wii
##vie
lowe
stabbing
##isations
leone
rows
##berries
stirring
##aca
debating
churchill
diamonds
altitude
eligibility
aurora
auditorium
##idity
##burger
dedication
weaknesses
recruitment
clubhouse
pfizer
ike
coward
tents
defiant
cables
adjustment
samantha
paypal
deceased
jog
##mill
##boarding
jacqu
cocon
intu
edin
equation
poorest
roses
airbus
encom
pee
hampton
indonesian
##opoulos
miliband
prohibit
##tles
paycheck
singled
html
gub
traces
brac
cooks
policymakers
##atism
palestine
bind
tucker
##moon
paragraph
authoritarian
corbyn
kuwa
censorship
critique
telescope
bites
maggie
molly
rampant
postponed
harness
melod
104
sho
allegation
270
##dain
useless
showers
seals
cluster
archbish
suppress
teresa
rallying
cancers
puppy
plausible
##aic
outgoing
##izers
autonomy
prototype
instability
tackling
##gee
##enos
prey
scrutin
##uding
gunshot
##uy
deadliest
reunited
aaa
##abil
gregg
excluded
elephants
##esda
venus
incompl
branding
tink
listeners
zar
stif
##oda
wizard
finland
config
##lean
##eous
pipes
zombie
socks
cc
rats
##lav
avid
##icz
##illes
ops
##lies
franchises
jak
wheeler
fift
honour
ket
texture
rory
feinstein
explored
midfielder
heartbreaking
spreads
protects
weinstein
jorge
ipads
bounced
goat
smuggling
yogurt
warrants
spirited
coul
forgiveness
kagan
gawker
##bly
mcilroy
strings
##roots
rabbit
proponents
vw
combines
dubious
1920s
paran
buoy
dempsey
vil
mara
blat
bravo
drank
paramed
promotes
sustainability
realise
clement
##fold
alpha
schwarzenegger
##tent
##repres
bethesda
##zen
adher
reactor
mm
##fman
225
##babwe
frames
borne
##hafi
swings
midfield
icons
dul
mound
##lave
##opinion
commands
103
reopen
laurent
immunity
moderators
vows
assessments
##kar
enables
bugs
basics
rutgers
unequ
2000s
consistency
emailed
sampling
tattoos
grizz
zimbabwe
misery
sore
##weet
benefic
birdie
volcano
psychiatrist
byr
feather
##writers
hick
females
cozy
mons
absorbed
fen
optional
##steen
##amine
stef
roberto
diners
##onymous
yacht
tunnels
tiffany
encompass
ingen
eva
averages
gadget
una
##orman
volt
medicines
og
##gow
jihadists
fidelity
injustice
prohibition
##ibe
substances
brokerage
enlisted
visas
##chin
excuses
mccoy
darker
sundays
fantas
tailored
patriotic
tumor
lomb
##tick
coins
elites
stockp
##inational
biblical
vernon
fielder
##prod
1956
spoon
cartoons
scal
shepherd
zoom
intensified
alison
manny
integrate
taped
fireplace
interviewing
versat
chandler
pokemon
##21
civilization
philosophical
##iago
snag
negotiators
escalating
maritime
commanding
amuse
##orne
fearing
##jour
internship
skyr
kw
##ionage
notoriously
vale
##ffer
solomon
resembles
yu
justification
##igent
unauthor
setup
smithson
containers
ferv
deval
hurdles
##ascular
tipping
##amble
exams
deepest
whiskey
simpler
fay
tril
blogging
##anas
crypt
##aways
hondur
icahn
fade
##ostic
fearful
wander
whales
burial
porch
marriott
mumbai
trajectory
archbishop
plots
remake
vodka
orioles
nats
goodness
crosby
medioc
caller
groupon
homage
panetta
contradict
guru
disgrace
sunlight
##aheim
##lets
##uda
barring
rigged
reimburse
beacon
##think
25th
winding
expedition
##andro
ener
incap
proximity
lund
packard
inherit
spaw
enthusiasts
holt
elimination
##castle
clutch
strokes
revolt
cricket
##hh
leaking
imperson
##istrations
insurgent
bahrain
divine
playful
semifinals
undisclosed
isab
confession
uploaded
rousey
##rystal
nonp
##build
raft
conflicting
echoes
##etsk
garnered
dislike
##geries
fork
disagreement
reproductive
monopoly
##cripts
merchant
resumed
disruptive
liar
valerie
festivals
glitter
bolst
gaddafi
##ocratic
##ormal
tvs
adolesc
##rs
arist
discred
decreased
##jay
tribun
grams
croat
topping
kindness
pavil
unanimous
inflicted
southeastern
semifinal
##eded
propelled
barbie
nichol
nj
anaheim
weddings
darwin
regr
openings
cleaned
stras
meditation
##otta
probable
engineered
earns
promotions
##ophobic
bracket
fuss
sein
phar
clearance
##inum
shining
morality
chipotle
suarez
implicit
hyde
ernst
bake
squir
walters
gadhafi
unfairly
whistlebl
pretending
yanuk
commuters
constrain
intoler
regards
hopeless
##sema
kash
##jev
believers
recognizes
predecessors
##urally
abn
spook
entrepreneurial
upbeat
emper
equities
olson
nolan
raced
clearer
flynn
##din
##osition
roommate
prescribed
##actors
insurer
jindal
slipping
pumping
diction
jug
telecom
fraternity
cylinder
jed
##mind
autograph
polished
simmer
abdel
souls
pessim
iq
angles
aggravated
gour
wp
capitalist
##hou
hoax
jennings
boil
alerted
##ometer
futur
vietn
advising
mileage
metab
petersburg
charismatic
condolences
intake
disclosures
incorporate
hires
marion
jonas
sliced
##ifted
deported
collateral
globes
##written
grabs
supervision
breasts
resting
affidavit
##ugu
782
shortages
intoxic
duration
cruises
habitat
imprisonment
##ifiable
doubling
initiated
chanel
sizable
refined
##empl
crane
x17
shortstop
tighter
1957
dispatched
2f
##itures
550
administered
##ickers
hander
santos
stripes
##35
##holm
forbidden
orn
refrain
disposal
sluggish
##iltr
visibility
remainder
rosa
##reeks
##urb
cnnopinion
trunk
fox411
ratt
timet
sincere
lsu
sotom
fellows
##ifi
##onte
congratulations
##licity
106
ricky
preserving
kom
delic
vietnamese
shale
parr
midway
sunglasses
derived
firefighter
inconsistent
jockey
prostate
confronting
hull
predators
libraries
parody
heisman
##boat
frankf
communicating
actresses
##laus
1955
##jar
shanahan
authorization
gloria
ideals
portugues
cheryl
skys
calculations
conway
impacted
embattled
1953
eccent
homers
loudly
##aney
brigade
arise
specify
##ycles
derail
discourse
pse
##ainable
debit
harb
##tenham
reopened
narciss
##cot
##fires
##apo
strains
nominating
encryption
embargo
pell
attributes
norton
alicia
courty
inaccurate
taco
arrivals
insulting
##stown
shores
##ibu
##aval
essays
youthful
nit
outing
cries
calder
reminding
bonnie
headphones
dinners
arabs
##ignment
decidedly
myths
pinterest
flurry
seques
commissions
obit
stems
colony
dizz
##kill
infants
indefinitely
chased
chalk
detection
enforced
cunningham
payne
pricey
accepts
endow
fernando
rooftop
sotomayor
prank
brakes
blatter
modeling
housewives
energet
ranger
cron
coats
barric
tournaments
##grown
powerhouse
pena
wagon
hurry
warmth
correspondents
recounted
particles
prosecute
dunham
demonstrating
shipments
couture
paulo
advocating
pony
hallway
recycling
wealthiest
overdose
restart
##iently
goof
watts
spacex
oceans
ineffective
fitted
outc
teas
bees
snoop
feld
improb
conservatism
analyzing
trevor
marlins
crank
positively
espionage
selfies
alberta
eisenh
##quare
donetsk
endorsements
supervisors
alto
basil
##guided
bruins
tunes
cockpit
abrams
destined
##ahar
ole
vom
ack
abed
nood
multinational
##abouts
dragging
inadvert
masterpiece
##date
broth
discom
trainers
tl
##cu
strategists
emergence
##aste
guzman
lobster
##asper
circulated
kut
peaks
melting
inexpensive
##nan
standpoint
apar
bradford
mgm
##urous
pint
##holic
##00s
1958
arrange
harmony
knit
versa
##information
##hole
stressful
##otti
storytelling
hitters
redef
stacked
remed
tumult
rewarding
chatt
infiltr
vind
##amon
##lude
prevail
vanessa
chatting
titanic
mosqu
sans
##ocese
1940s
##kers
##66
shaky
ukip
offender
continuous
seasoned
mexicans
lug
sundance
privileged
kramer
courtney
cypr
compensate
hutch
jfk
kens
competent
celebs
##ipse
##ieth
granite
edinburgh
coch
westchester
amazed
lightweight
sweater
unsure
axel
instrumental
112
smithsonian
footprint
coconut
x17online
portuguese
escorted
exempl
##nick
clan
punches
redistributed
bunker
mia
magnetic
estranged
hulu
##idas
wholly
rede
menus
solitary
ballroom
depicting
upgraded
beneficiaries
indicators
##ipted
antiqu
weary
nerves
organizer
steroids
undecided
commenting
unofficial
mats
workouts
quicker
preparations
insufficient
hears
##atories
entrepreneurship
outfielder
resentment
kickstarter
raging
thu
daytime
withdrawn
##arium
unear
traced
glove
profoundly
vip
kand
piled
anders
assistants
acquaint
velvet
##ensed
griffith
trot
emm
kindergarten
sergio
daylight
davies
clarkson
eh
##ierre
nightly
curse
disciplinary
hebdo
easiest
protested
hostility
##owdy
poorer
vanilla
reese
writ
captive
grassroots
demographics
##broken
shun
##annah
responders
springfield
amusing
sharpton
##uds
mechanics
blade
maf
expressions
##address
bratton
objectives
choke
hash
burgers
cleanup
schneider
goalkeeper
##angu
gamers
forged
tyco
electr
angered
surgeons
lobbyist
daytona
residency
magistr
mindful
hewlett
originated
indications
revived
malik
nicholson
playwright
classrooms
##amiliar
bells
disqual
facto
pamp
##enthal
##prime
##blance
##sem
bj
gases
inspir
hamstr
fountain
pseud
perceptions
ramsey
binge
knot
romo
finalists
fraudulent
dwarf
fracking
culpr
reversal
installing
spart
millennium
screened
similarities
desirable
autos
deductions
fost
wanna
insults
bubbles
clayton
scans
impending
misguided
kara
##75
prie
##quist
subpo
neon
sao
sylv
adverse
injuring
curtail
lungs
a¦
bew
operative
generates
platinum
laundering
berman
servic
counselor
##esses
garland
boliv
subpoena
doses
humph
puff
rulings
trustees
vacations
gubern
hyund
guitarist
mari
monarch
skyrock
reclaim
speculate
pledges
##oco
edit
displaying
repet
swir
emailaddress
##ecting
personalized
sailors
pecul
defines
sfchron
reconsider
cows
transforming
0207
surfaces
ecst
undergraduate
olsen
850
##hawks
ancestors
autobiography
erad
nova
mickelson
berger
haired
carlson
sv
##isha
crosses
##risy
bauer
cory
wm
mailed
bezos
heter
supermod
subsidized
exploited
##etted
peculiar
consort
boge
lego
subcommittee
1954
unjust
proclaim
waking
alas
##usa
gluten
swims
aniston
impulse
youths
ghana
jerk
papar
machinery
##coni
rue
siet
exhibitions
aided
dixon
koreans
nexus
##ptic
synthetic
spies
surgeries
categor
waved
competitions
smoothly
interfere
rc
ripe
objected
unman
arrow
edu
neglected
boulder
eccentric
rox
awak
incorporated
lol
underwood
addicted
##ocity
humane
variation
riverside
cottage
nails
highways
protagon
roadside
torch
bribery
unauthorized
incomplete
##rise
sax
unfamiliar
norms
chanting
gubernatorial
frontrunner
uniqu
headache
structured
hyundai
##fo
##ilings
slashed
##she
lum
shelton
intentional
##atement
mourinho
territorial
candles
dolls
stationed
shov
magnet
spielberg
skyscr
##imi
impover
assail
##weigh
morally
chemotherapy
proliferation
awh
husbands
##bons
spilled
reboot
lime
slid
builders
privat
juliet
dismissal
lerner
trench
hurricanes
implied
spicy
sushi
unload
biotech
shear
funn
fractured
sears
108
publicist
##bags
brisk
subprime
burnett
realty
advocated
newcastle
claud
rt
genetically
lush
practition
alvarez
sperm
contestant
breakout
mentioning
rejecting
croc
sniff
thes
feast
schl
resolutions
disrupted
refresh
hates
sri
propriet
steinberg
apprentice
vt
fowler
adorn
travelled
vineyard
separatists
destabil
reset
keynote
translates
boast
fedex
##enhagen
##city
##hammer
constitute
expenditures
burdens
subsidy
reyes
vista
##utz
rochester
screenplay
stemming
##gev
implant
opec
aviv
foresee
ci
##cock
adobe
binding
dir
outweigh
##elyn
marty
algorithm
##rous
humil
##occup
carmel
alcoholic
substantive
clemens
throne
##spring
114
explores
tangible
sfchronicle
##core
pumped
manipulation
redemption
cir
gat
bullish
maximize
##ivable
##trak
descended
rehearsal
##unc
bung
robotic
samar
##econom
wasting
segregation
maya
warhol
loads
drastically
##itations
edgar
consulted
expansive
amongst
squeezed
arra
jup
sob
gaze
calgary
exaggerated
##mus
##omes
congregation
sexist
bounty
welcomes
dinosaur
dolan
reassure
portrayal
havoc
prevents
novak
stimulate
discourage
glowing
biased
casc
pesh
##gal
probability
balances
plumm
ree
constructive
cooperating
gan
weaver
outperform
shells
unlawful
supplements
##ressive
##icester
vampire
##bart
##igible
tempted
7th
surging
luxurious
documentation
assaulting
ruff
spat
grapes
walton
salesman
greenberg
selective
controllers
unstable
respir
enrichment
reinforced
stigma
drowned
intermedi
sneakers
##lys
wass
##shots
cruelty
greatness
panda
##escent
deprec
metrics
amounted
dads
accomplishment
cumm
fronts
razor
vegan
swat
fertility
uneas
johnston
zen
doom
confisc
declares
vigilant
##inton
fluct
swipe
bandw
kaplan
mosquito
extensively
extraordinarily
lea
listens
copenhagen
stip
##atural
fc
excerpts
##urable
concession
breeding
acquitted
##ouf
bucking
provoked
individually
martyr
inspections
thatas
boyle
criticisms
capita
staunch
ceilings
kickoff
contingent
##herent
kimber
accommodation
recurring
headaches
dismal
illustrate
vegetarian
pearson
bystand
pep
artifacts
##adays
wwe
schw
lennon
padd
##user
bowling
poisoning
jelly
thrilling
micha
##umbles
ounces
prolific
notch
backwards
oversaw
lexington
##mand
rowling
##ente
hypocrisy
undo
planner
royalty
austrian
bentley
rejects
metric
precinct
servants
exercising
ronaldo
ans
nowadays
downloaded
disturb
deferred
leicester
gos
crowley
##igs
mueller
governmental
candl
putt
systemic
multipl
coo
gb
newsroom
verified
plotting
awake
hurdle
##river
typhoon
##icable
contends
unspec
##walks
glitch
disbel
radically
##hall
herbert
mcch
colombian
stronghold
1947
saleh
derivatives
contag
satellites
cfo
glasgow
seinfeld
conform
renovated
timberlake
onions
184
mindset
pcs
##ondo
30th
admiral
fashionable
##most
seab
participant
argentine
jugg
##neum
responsive
pavilion
swear
competed
##250
yor
##imps
##glom
legends
sensor
crossover
trilogy
rift
##oner
##elines
unden
heavier
frankfurt
##mite
pleading
urugu
comfortably
sietsema
shelling
guarded
jupiter
accuses
accusation
##adena
blames
cleans
slices
drills
##olling
serbia
faint
##opa
tramp
##gard
valle
safari
satirical
outcry
danced
sufficiently
stricken
sidel
explet
studded
uganda
ful
£4
rests
lester
unconvention
eyebrows
eisenhower
##vine
mandates
renewal
pneum
editions
shak
poles
rangel
bliss
ribs
##esville
##ieces
dawson
pyram
sausage
##ophobia
uruguay
9news
zel
wein
flipped
murderer
casinos
pend
ping
malibu
nigel
diner
##ioned
illicit
poul
marital
partisans
unpleas
lengths
theod
amph
##keeping
landslide
selecting
scouting
triangle
wielding
##fest
organisations
eternal
##omatic
obtaining
cabrera
1952
##rogen
efficiently
funk
unreason
kol
wicked
##pta
coordinate
earthquakes
reich
mattress
insistence
rethink
##shaw
nonf
satire
ethic
roc
##abi
crossroads
##mir
##isch
brod
villagers
abducted
dissatisf
eclipse
pepsi
hospitality
rescuers
pumps
adjusting
peppers
trous
##govern
freshly
multimedia
gc
foursquare
amc
moses
##mal
dee
beltway
capsule
alphabet
sheikh
soaked
quarterf
botched
pratt
speedway
spine
boarded
varieties
##olitical
##folk
randall
##shed
balloons
adequately
evacuate
morocco
##imen
criticised
asth
ouster
tres
timetable
fd
strips
paterson
explanations
##rup
##istine
readings
lyric
bounds
sto
##lander
nutri
intensely
corrected
##36
##ectives
seeming
degeneres
##iba
missp
##bis
armored
cooperative
pharmaceuticals
##aleigh
metals
groundbreaking
newcomers
openness
interfer
helpless
distressed
tearing
ransom
unspecified
covert
reneg
illustrates
overthrow
emperor
dime
amtrak
behold
forefront
##ulin
unhealth
geography
##keepers
nicknamed
escort
analys
##pable
centr
interpre
wolves
outline
sensational
whipped
fascinated
##fu
leftist
##ieved
clergy
##roft
manhunt
whims
envy
##ulsive
abundance
catalyst
##ologue
rousse
##lamation
driveway
wart
duffy
induced
admiration
webster
dipped
scheduling
##55
energetic
##hops
raul
##bourg
##ovych
truman
relay
##26
saddened
hateful
jub
exploitation
htc
vow
grues
instincts
capitalize
merge
honeymoon
turnovers
extradition
260
##hu
fixes
statistic
irreg
tottenham
grieving
patio
ceasefire
offline
vangu
##eco
relev
denise
rationale
wack
##29
icy
palo
nominate
springsteen
standardized
punishing
ranges
felix
vigorously
zak
trendy
frightened
evangelicals
refrigerator
macro
neckl
sibling
priebus
bury
abusing
appra
4368
synag
intimidation
broadcasts
discomfort
brides
monsters
salute
5m
unsafe
desperation
unveil
impeachment
##witz
conglom
chickens
rouhani
##emia
bras
towel
vendor
##inas
forge
##ega
lasts
somali
facilitate
courtyard
weep
sentiments
depressing
imperative
fulfilling
claude
defam
lifts
##theid
disregard
##pted
sebastian
##alc
violin
wandering
dances
kum
##este
amput
handic
impart
violates
avery
apologies
pdt
seizure
unconventional
gs
##waves
dared
partying
prominence
cakes
pathetic
splitting
mourn
fatalities
vall
##cation
wrench
confirming
impoverished
##oused
viruses
eyew
antique
interestingly
quartet
seldom
##burst
tenant
cheapest
##nuts
notices
strengthened
malicious
professionally
##yards
floral
brom
imaging
hydrogen
vanguard
spinal
##ovascular
decept
indec
engulf
urine
macbook
##marked
obstruction
##eyer
wearable
lia
pervas
mechanisms
requesting
kenyan
ernest
##osaurs
envisioned
merry
berk
rentals
suspicions
murdering
boyd
hoover
shelby
escalated
alexandra
mattered
pp
mao
1000
escalation
poems
##ahi
freight
unfav
granting
towering
##bies
invites
starr
sodium
gail
portman
godd
irrational
##igor
hourly
hamid
prescriptions
advertised
##ouched
##oday
yearly
providence
pressured
ideally
gmt
suzanne
apartheid
##elight
sofa
almond
reservoir
rugged
shirley
johans
yanukovych
pillow
inherently
stirred
stabilize
granddaughter
irregular
masked
drastic
boasted
possessions
allege
mora
ranged
applauded
odom
zion
##unctional
mered
abst
bcs
pointer
notebook
bracel
latt
makeover
screamed
profitability
ailing
massage
##quette
wounding
wolfe
arrogant
##27
rigid
timed
affirmative
scant
organised
dusty
unfolding
busiest
punching
kess
assessed
insec
footing
praising
unpleasant
##stad
facade
upfront
calculate
mpg
tainted
##urances
attach
descriptions
improves
malf
evaluating
constraints
##acom
cac
remedy
extinction
limbs
appropriations
tories
feas
blur
guatemala
vie
yielded
shapiro
usb
newfound
manic
##awk
slug
awaken
speculated
ethanol
##endale
##andy
##ouncing
choir
iam
fraught
greeks
kus
wildcats
krug
disturbed
quoting
vandal
##inates
richie
reinvent
kham
researching
excav
lup
yose
downright
cardboard
implies
dupont
##oise
brisb
##imer
##oso
islamabad
##erty
##elia
itiner
##thood
footsteps
kale
##nar
superd
assessing
fifteen
blink
forums
airplanes
##asis
mosques
scrambled
als
tempting
tarn
arenas
floated
berth
kuwait
dior
##icidal
scramble
chili
unintended
whereabouts
morales
zur
111
battal
beverages
premieres
nanny
undermined
##apova
##answ
sandoval
neighbours
onboard
objection
abandoning
render
yon
debacle
denis
fiercely
bigotry
meredith
peaked
tinder
##ibal
##blue
##ammar
scoot
pedestrians
bale
##akia
clashed
higgins
nair
parach
captiv
appreci
hanks
cardiovascular
freud
immort
fixture
delaying
cio
##xx
buyout
napa
breit
exquis
##velope
paralyzed
edison
peck
grandma
scrub
coffin
##gre
spared
bret
secretive
##inness
deliveries
bullock
splend
buddhist
marketed
youngsters
sexism
##ogram
ply
encouragement
pacs
ellison
trailed
feminism
kad
whirl
newport
ariel
selma
bombed
miniature
thumbs
hairc
vaugh
tasked
##amar
admittedly
landscapes
lexus
polled
celeb
sharapova
conan
pinpoint
collaborative
presumed
mavericks
guts
##itives
preschool
simplicity
constituency
midday
replies
multic
intimacy
avengers
morale
angu
surpassed
##orig
billing
misch
analog
sequester
reggie
##taking
anom
panor
auctions
replay
monter
entrenched
hague
caffeine
legion
radioactive
exclusion
bolton
randomly
scholarships
brisbane
sacked
##biz
monk
unsur
faulty
nast
senses
hersh
##inel
buc
lays
satan
spawned
spit
totals
dictatorship
brunch
afflic
santiago
hsbc
airspace
fills
belongings
submission
byrne
tavern
surroundings
reaff
envelope
blo
haitian
morn
elon
greets
articulate
dice
clout
##ensional
##atorium
pawl
hesit
bard
##cus
##ieri
inflated
narrator
wen
nonpartisan
protr
rosie
##made
builder
1940
proceeded
diminish
downplay
righteous
philanthropy
loopholes
bc
bono
depths
consortium
zhang
##37
gob
mba
pity
slapped
bedford
faq
kitty
##ceptible
dangerously
imperfect
cly
stew
theresa
fascination
resilience
pencil
##oi
conductor
extravag
beet
governed
withstand
##thia
doyle
illustration
williamsburg
prohibits
spoil
##mie
showtime
attracts
##idad
sticker
summoned
bookstore
unanimously
##39
##opy
verse
sticky
cafeter
pia
##fight
keller
##corn
swamp
ordin
motorists
gwen
marvin
whats
positioning
vanderb
##arin
australians
wrink
newsweek
fishermen
incub
##queen
courageous
##arus
##sports
116
hof
##asa
handler
farrell
epstein
omaha
gruesome
##88
sheldon
suites
collects
sponsorship
##adan
brookings
nook
##aday
fuck
megyn
plummeted
##ellan
107
stealth
truce
environmentalists
##uki
##inged
##alyp
goalie
pasadena
##jack
loath
await
paparazzi
condemnation
stained
discounted
visions
dominating
blowout
breathtaking
dumping
wraps
malware
invalid
johannes
##ulture
worthwhile
atrocities
fading
tint
tumbled
##ben
##enza
festive
meaningless
smokers
##edo
prose
undercut
lunar
abdom
centric
danielle
mafia
##gart
taxed
adolescent
##a¦
guill
ankara
ud
##essen
betrayed
ftc
##opal
knives
robbie
revered
##ections
didnat
administrations
eastwood
yemeni
sabot
uphe
thunderstorm
radi
rums
asthma
safeguard
piles
blanch
profiling
reluctance
overdue
plead
knockout
xen
##fox
obstr
gateway
undermining
exceptionally
drift
avalanche
##rano
goose
emble
cald
pairing
compatible
rollout
nurt
mariah
indoors
mcchrystal
societ
113
foreclosures
thief
amended
runaway
tighten
##esp
##avan
diy
gradual
earnhardt
picnic
gavin
kod
tian
hale
vigorous
coughlin
bella
selections
hansen
dysfunctional
##ecc
##acp
bullied
subscriber
inflammatory
kc
##mob
partnered
tsip
##urgeon
scarce
wesley
maturity
##eel
stric
ashes
##rik
nichols
deflation
jag
rockies
280
frazier
perspectives
bitch
interviewer
assignments
delete
cafes
assumes
##gren
flatt
desires
sacrifices
evenly
breaches
9th
obliv
underscores
seaside
trout
drummer
##itus
flush
plunging
tribunal
##ivision
metall
##eville
enforcing
counters
trivial
##reet
##allah
browsing
stricter
##lich
guiding
cardiac
qualifications
ballpark
rosenberg
respiratory
indis
distrust
dustin
ti
##isal
paras
##orns
dogged
introduces
casts
exhibits
elaine
disappearing
cinematic
resisting
arbitrary
ek
##100
quantity
pandora
tep
aca
##apeut
stadiums
fret
fridge
##spot
functionality
waitress
sage
standings
loeb
cookbook
blueprint
armen
brewery
klan
##chem
comr
eloqu
##umbo
proposes
foll
##je
chloe
##ocious
upton
carc
advertisement
centerpiece
paramedics
planners
unhealthy
phant
wrang
vanderbilt
freeway
prosth
sawyer
##alypse
pest
installations
accumulated
resilient
uproar
unmanned
sock
onl
devotion
falcon
coupe
accompany
leigh
dealings
saturated
consolidation
fend
##orthy
stard
diets
bloodshed
ensuing
conceal
pragmatic
wishing
inhib
brawl
145
treasurer
evaluated
210
cynthia
funnel
barrage
##orph
flashing
tomlin
dramas
acoust
stray
tsipras
journ
hearted
##herty
existential
1949
resumes
##ava
salem
bluet
coma
dob
smear
correspondence
falsely
belle
penthouse
zyn
unansw
africans
seriousness
commuter
belts
peac
contributes
contracting
devastation
##ectic
scha
denom
activated
festivities
tackled
muff
deterr
policeman
boon
monkeys
nak
##enchant
flyers
braun
drowning
kyr
##itan
posture
cellular
unic
mysteries
integral
##mph
dependence
butterfly
jaguars
ail
baham
insured
mapping
huntington
fischer
slogans
mayors
concede
##rays
##sons
##cts
expands
einstein
explode
craigs
earners
develops
geop
sparking
saunders
117
parkinson
40th
flashes
coaster
harmed
township
sophie
quantitative
dentist
underscored
multimillion
raleigh
weber
squar
portfolios
bureaucratic
pardon
dmit
adidas
louder
naacp
wynn
dorothy
##adoes
sinatra
##itiveness
##andra
155
apiece
championed
pirate
plaintiff
arose
##luded
publicized
165
hazardous
gimm
wels
continuously
groceries
histories
ruby
lust
quiz
docs
mustard
deduction
tentative
irene
##bra
stare
harassed
ruthless
berlus
compassionate
alarmed
##agin
moderator
breeze
##ogyn
##ultural
begging
gid
nause
thirst
esteem
cryst
kirby
##iu
marian
biting
##uala
truths
3g
defiance
##breaks
skyline
hadid
lochte
flop
edmund
welch
cancellation
philly
dimension
jerome
gy
mesh
quarant
taxation
opting
hartford
haunting
monaco
penis
fundamentalist
rendition
anatomy
grac
laure
reigning
pervasive
##ospace
wildfire
jenna
unveiling
foam
rica
thur
postwar
sloan
apost
maxwell
thereafter
ringing
contamination
debuts
##liness
uneven
releg
lyft
cupc
mantra
zynga
och
##endez
carlo
gigantic
##people
amusement
sz
dinosaurs
weakening
spontaneous
##year
claus
southampton
conspir
infur
broadcasters
herz
##trow
1944
windsor
berlusconi
remorse
pdf
fey
dots
##85
##uming
##ashi
disdain
##ushima
modeled
recognizable
puppet
kemp
honduras
identifies
skeptics
ailes
tuna
plaster
pastry
hypothetical
yosemite
hue
sasha
watergate
atlas
benign
swallow
booze
wartime
tenth
exclude
exert
pioneering
infantry
piss
downstairs
ovation
packaged
marrying
rotten
vagu
skipped
yelp
##pad
##ycl
trusts
malls
ginsburg
pervers
wellness
sip
##gic
##amas
mosquit
bait
swimmer
footh
pianist
fritz
peb
undefe
homs
lament
systematic
reactors
heel
slams
checkpoints
109
stoke
projection
density
congestion
millionaires
ghosts
bisc
ef
literal
bourbon
captioned
##arta
lineman
pamela
craigslist
vinc
##eson
alberto
proprietary
toes
aborig
##log
tease
venezuelan
pestic
shen
roe
labeling
manipulate
chester
perennial
forecasters
aerospace
##anto
elena
cosmic
tornadoes
dictate
tones
internally
devised
injected
sesame
ew
ayat
salvation
6th
printer
deeds
misogyn
disproportionately
dictionary
unex
sweats
unfin
experimenting
shaun
sidelined
fx
##racies
dietary
undefeated
##fy
toured
chanted
hopefuls
unsurpr
##rate
amal
perimeter
usat
calculation
manifesto
ait
chir
marque
augusta
creations
##apple
antics
comedians
empowered
##uates
##avier
scaled
perpetrators
overshadowed
relevance
believer
landmarks
##76
subl
institutes
durable
neurosc
horrified
assemble
uniquely
jod
ngu
##estation
##ocracy
screams
##gon
phony
reacting
replicate
depicts
etf
dimensional
endorsing
intercepted
dazzling
##orial
carm
businessmen
liking
passages
piper
judgments
ethiopia
##iii
racked
foes
adr
getaway
signaling
patty
##markets
evolutionary
mammoth
dysfunction
unaff
sentinel
horizons
bair
avatar
redesign
plc
unfinished
lous
wrapping
surrendered
incarceration
bowles
##hea
therapeut
obey
buenos
paltrow
##liners
disadvantage
este
planting
durham
hawaiian
reliability
strasburg
abby
imbal
keeper
forgiven
bele
mediocre
inadvertently
##onso
##atr
mommy
armor
8th
##ryn
publishes
##osterone
hayden
relaxing
submarine
specially
woodward
impressions
nhs
tailor
lapd
insects
mcqueen
rocking
suffolk
prostitutes
zoe
burge
penguin
lena
crater
downloads
manufacture
23rd
prestige
##abb
##rique
entour
rizz
sly
slipp
fec
rita
passer
static
discoveries
sanctioned
4g
moderates
##eto
##ailable
goodwill
stylist
prevalent
##olia
plague
blago
flan
raided
dimensions
deprived
hammered
prized
caric
scars
##atta
cube
##atz
##eye
carnage
voyage
unrealistic
amassed
pneumonia
##plan
embold
mentors
##lia
considerations
rumsfeld
injunction
stockholm
clemson
benson
invasive
pollster
arresting
cartels
fundamentals
gymnastics
laced
lingu
##ventions
ominous
bryce
kud
unfl
unthink
obituary
vain
##otics
scrib
daley
catering
pawlenty
##atus
murky
preventive
##feit
1939
compounds
baseline
volunteered
petr
learns
confin
sinister
##achers
supern
##ograms
##gevity
hmm
##americ
aires
fukushima
qur
##lifting
##abul
peacefully
organizational
cbo
duplic
looms
predator
proceeding
fizz
##bol
hungarian
boiled
ledger
bailouts
reeling
transcend
naomi
##oooo
hormones
tulsa
neatly
correlation
vc
##stood
costco
grammys
##hurst
stur
careg
calam
guardians
elders
pagan
sx
tug
interventions
commence
desmond
simone
nightmar
succumb
understandably
quantities
mascul
inland
marcel
##pled
ridden
##anova
sparkling
peripher
observing
monumental
confinement
regimes
jacques
temptation
hierarchy
characteristic
hayward
federally
overfl
##rir
meme
cubans
feminine
horns
unearth
worldview
filters
ballistic
cheated
cuc
norfolk
receipts
departing
staircase
algorithms
##acion
centres
betrayal
outburst
joa
statues
preceded
evidently
hanson
##bee
psychologists
brutally
lama
bricks
laurie
perp
enjoyable
remn
claw
engr
macdonald
tasty
dm
clarence
muscular
prosperous
welsh
##atown
fugitive
intricate
convertible
discharged
riff
communism
drums
reapp
unreasonable
breitbart
trinity
testosterone
perceive
ribbon
johansson
gina
enr
impat
demo
southwestern
countered
munch
belmont
1089
##orsey
piracy
rs
rer
constitutes
robbins
branson
respectable
lockout
persecution
aq
hough
##akable
appalling
tubes
gild
woe
snowstorm
downloading
vinyl
##number
##ifa
marker
snakes
savannah
##henko
gourmet
bluetooth
##sburg
sebel
doe
skirts
judith
chunks
novelty
##inges
##ensibly
poignant
proportions
browne
##iker
##odus
byrd
hacks
condos
cathy
breastfeed
intimidated
competitiveness
procedural
michaels
genome
unanswered
supermodel
workshops
frederic
##acial
unbeat
jointly
reassuring
mistakenly
cambodia
improbable
##ango
squirrel
uneasy
ayatollah
rainfall
bogey
##felt
assurances
passions
nikki
dorsey
baier
kissed
cedar
inspirational
notification
abiding
carmen
gupta
journalistic
horrors
##ymour
chapters
axelrod
tile
300x
centrist
documenting
bogus
nah
##lair
everest
infused
microsc
gruden
anita
brace
##itton
farr
nearing
scarlett
discouraged
unsurprising
schiz
kitchens
dissol
1930
dimon
bs
pasc
spiked
preoccup
concoc
authored
recognise
lg
vog
everton
reno
phenomenal
incarn
inexper
##vette
##new
screenings
galvan
heroine
annoyed
300x250
neb
buchan
designation
tracker
arabian
mastermind
1089size
opio
certification
affiliation
trousers
frantic
outbreaks
##uggets
sorrow
##isphere
##rea
speedy
exploding
staffing
sandberg
liable
casually
longevity
asteroid
algeria
exhibited
protoc
endeavor
ryder
seism
derrick
privileges
meyers
overc
golds
flores
graders
orchestrated
dalton
witt
stature
bundle
egreg
philippe
disgust
prominently
expires
onlook
fou
termin
bilateral
kaufman
tidal
skins
kinda
fueling
wob
penned
taps
nuanced
kohl
pluck
juicy
mcaul
##poons
folded
cummings
minerals
olivier
khamene
tir
provoke
##urrence
##abs
hare
servant
glendale
##crowd
camel
textbook
principals
reconstr
fink
exodus
variable
commissioners
helmets
tad
alc
mirac
strive
physi
niece
seymour
##istas
glut
severity
bise
grains
intrigued
humiliation
theodore
caramel
ned
##eo
stefan
swung
tarp
gabrielle
expletive
tue
orang
downton
rooting
sleeves
jos
##iard
reorgan
cutler
sharif
consultation
surrogate
hamstring
pounding
invaded
crawl
dugout
exuber
endanger
tilt
stafford
##acker
1941
##28
##aned
angr
framing
##wayne
1946
atheist
echoing
##ivoc
separating
kub
fools
fod
prodig
manipulated
allergies
cyprus
irres
strait
naj
cosmetic
strangely
fray
sins
firsthand
possessed
dispers
128
bumper
buddies
sebelius
bachelorette
korn
##oric
loom
nicar
aggregate
entourage
chal
nutritional
discriminatory
harrowing
stanton
additions
haters
eliot
passports
geological
1951
yas
rainy
vinegar
##iquette
lured
##comings
disagreements
discretionary
##eley
canned
downhill
shortcomings
defici
tumble
timeless
##issy
landlords
mergers
allig
colours
halo
excel
comedies
xia
visually
presentations
foil
##enzie
uphill
progressives
##cliffe
seren
closures
kendrick
endowment
twent
tamer
gerry
pits
##eard
##uns
companions
setbacks
greeting
##eworthy
daisy
standout
pts
offspring
lionel
unsettling
##iko
disbelief
sb
##370
mornings
brighter
directs
measurements
##agher
##uder
manila
monuments
unthinkable
anesth
relates
esque
##ueless
widening
fragments
cody
ritz
##oshenko
outnumber
blah
##azer
generosity
gentlemen
apocalypse
khamenei
cin
escaping
condemning
oyster
peel
##eway
shameful
airstrike
flourish
eased
guinness
brightest
concussions
xavier
flir
judd
sketches
diverted
derm
revamp
assisting
sofia
expiration
registry
accountant
controversies
patriotism
mathematics
transitional
antagon
circulating
solem
silhou
anchors
susceptible
intimidating
bahamas
##iscover
lifes
rendering
chevron
mistress
brake
rodney
sixty
mcauliffe
ench
restrictive
roland
##gae
##endo
realizes
oppression
sunrise
pinned
niet
##abilia
islanders
collapsing
scorer
pyth
williamson
odys
ds
revital
approving
confeder
recycled
idiots
##prom
faction
humility
##echkin
grappling
lousy
wre
##zza
jetblue
acceleration
upright
##cribed
tahrir
toppled
cinn
primetime
deliberations
stephens
enlar
creed
accommodations
dominic
demolition
crippling
allan
herbs
mineral
captivity
pediatrics
##acas
withers
##ifier
minaj
wrongly
gritty
discern
protocols
unsuccessfully
plumb
canv
filip
benefiting
cereal
##200
socialism
hallmark
reins
airborne
calf
allergy
invoked
motel
coyotes
houth
scripted
hugs
ovechkin
lighth
prevailing
lesbians
##idis
dreaming
dugg
##des
##icular
##yna
fastball
barton
nay
philosopher
syndicated
lectures
##ishi
eagerly
abundant
##vic
sleeve
technician
kot
gus
22nd
##nard
##esta
likened
melted
ostensibly
##mac
semester
advancement
bere
##vable
##omac
defects
123
improperly
pryor
##due
loosely
newcomer
paste
paused
ravaged
kes
snapping
scripts
bayern
tribeca
fingerprint
brilliantly
mimic
##ishly
schul
gorilla
separatist
strap
##athia
finalized
selena
patches
tid
fliers
marshal
grassley
lumber
prix
marr
##integr
defeats
muted
touting
chee
sincer
##anski
crumbling
painfully
atheists
recapt
casualty
disco
bottled
roeth
readiness
remarked
padres
replica
##cm
revision
layout
memorabilia
quantum
distributing
inhabitants
alito
agon
lima
descendants
thesis
rousseff
lawson
needless
##ophren
dui
literacy
tand
##esha
bombard
situated
275
wisely
relieve
buckingham
##tran
##oupe
medved
smugglers
hemisphere
hosni
streamed
waiver
motto
herd
measles
documentaries
drafting
battalion
cq
fences
narrat
prostitute
ethnicity
##lio
tallest
merritt
stalin
##iens
milton
harbour
retrospective
livestock
aboriginal
moratorium
##aline
guessed
addicts
pleasing
scent
avant
saudis
croatia
potomac
##oji
stride
179
sergei
writings
kimberly
schizophren
scorn
maternity
knuck
eden
geomet
journals
cors
carriage
endurance
allocation
lilly
conjunction
joaquin
cumber
swip
triggering
golfer
peggy
##lisberger
##wig
##kson
cabinets
eros
updating
circa
supervised
nt
clog
portal
styling
##dc
stove
suicidal
lett
incumbents
##lewood
hebrew
mosquitoes
##abulary
cafeteria
fein
withheld
##oya
retwe
farage
hoard
cushion
noaa
##bride
communal
curf
stocked
mullen
##omp
expelled
fb
ioc
yaz
##start
circular
##izza
homeowner
##jevich
##fi
gris
118
jumper
gatherings
smells
reliever
heartfelt
storied
cyclists
connectivity
mundane
bick
gq
##mert
employing
madden
royce
sidney
dex
deepwater
rocker
cowell
faw
deft
marquez
summed
arson
##charged
sass
##earns
cavs
roethlisberger
paved
shea
##enzo
lyndon
handout
consolidated
unleash
shrew
basin
summar
altercation
maternal
flavored
horizont
hilary
haunt
punitive
resemblance
kang
nuggets
##horn
clueless
streep
bowman
mandel
fleming
stresses
emphasizing
sunnis
databases
##oufl
hulk
downey
##economic
##olar
flagged
blagojevich
##oor
silverman
jaguar
buchanan
£6
##ixed
caliph
##umenthal
curves
trickle
choked
trove
statistically
chaney
bisexual
##enburg
##arton
muster
tycoon
lbs
misrepres
noel
greedy
hangover
pedoph
burglary
clich
preca
mateen
meh
donating
##cester
tumultuous
rattled
seizing
weekday
westwood
plummet
ezra
irresist
lough
yam
chate
fared
theoretically
tarant
trooper
paints
bouncing
burgeoning
westbrook
infidel
##gates
upwards
paral
boise
##appings
tara
sightings
obliged
disparity
##yen
##sson
##urp
notifications
crest
blumenthal
afl
##habi
blankets
nr
nus
penchant
stumble
specials
lamented
mushrooms
feldman
##ativity
restrained
scarf
draped
2019
kristina
bates
remod
robyn
##iesta
stevenson
accelerating
##asher
abide
garment
leaned
##angelo
witty
mayhem
239
obsessive
##jet
discarded
avoc
unsust
caldwell
twists
eldest
hinds
precaution
camoufl
legislatures
frustrations
paranoid
##49
globalization
suitcase
felon
carlton
mens
##eliness
corr
sleepy
##inelli
snapshot
ober
##azar
ante
##daniel
relentlessly
byron
avert
patrols
applaud
verg
aloud
lackl
santana
besie
defamation
erase
collaborate
bunny
eclectic
butch
cliche
peep
rails
##money
chern
honorary
reperc
mariners
laurel
maurice
outsourcing
fantasies
wich
pixar
bulger
skid
councilman
incompetent
popcorn
trimmed
affiliates
maduro
regulating
cosmet
sabathia
phantom
realization
steals
taxing
volvo
forceful
restraining
triggers
chops
epit
sunk
outset
embarked
dishonest
bian
notions
ignited
forecasting
avenues
etiquette
hovering
##but
aclu
restricting
tripled
honorable
##enkamp
##adors
notify
genetics
fung
sapp
saban
skipping
slots
swf
trustee
visionary
geared
parallels
repercuss
majorities
sentimental
squash
analogy
loading
lavrov
tumors
contended
pots
varies
320
##lough
airwaves
malaria
grader
tx
vouch
poets
coloss
miscon
pleasures
lipstick
scanning
unseen
rebuilt
apocaly
ns
sah
quar
bribes
pristine
frog
lest
##court
abnormal
kia
overst
coordinating
redevelop
swelling
salvage
screwed
fraser
desks
recruiters
upheaval
##tree
challengers
heming
elb
condoms
bundy
peanuts
overcrowd
penney
astros
marquee
##iga
appalled
bashing
inserted
arrogance
rin
wires
donned
specializing
chilly
mcph
temperament
delightful
versatile
##lane
quitting
pointers
wonk
births
##heit
universally
thornton
bhar
mang
slashing
sonia
darrell
insulin
lauded
freestyle
scher
prevailed
##headed
maureen
subdued
##cht
soar
wedge
policemen
##iegel
undergone
##crimin
viacom
##ourtney
negatively
aquarium
barnett
bucc
alma
jerseys
adventurous
tux
browse
fumble
vying
##86
149
mourners
wo
stringent
nuns
vaguely
churn
colleg
allev
dickens
gaff
lumin
friction
##angled
discrep
dominates
valeant
kutcher
herbal
liabilities
banners
butcher
##about
ferrell
tightened
tranqu
chants
1920
colise
insens
norris
pads
supermarkets
astronomers
sals
lofty
dividing
diab
toni
renee
noteworthy
allure
merck
eyewitness
deadlines
strategically
imaginary
inexplic
narratives
##rance
##ersion
trill
visibly
rockville
accessory
premises
qe
sphere
adren
scales
demi
conspic
inund
tomas
survives
kilometres
skeleton
pau
##actory
129
legalized
sirius
kazakh
muk
shuttered
##blog
deception
##zan
teachings
javier
photographic
mh370
kandahar
conqu
navigating
intuitive
props
waver
215
hawking
cruising
slippery
bode
##nings
rahm
lafay
berm
evapor
flung
essex
torque
1938
ia
ald
mouths
parsons
##mary
larson
chinatown
nond
##ayan
incapable
baum
altering
##aris
attic
##manuel
typing
fitzpatrick
venge
switches
indexes
transferring
mma
##fts
##ulators
envelop
regiment
futuristic
##pace
reap
redeem
ticking
bustling
winters
sxsw
##dl
aldr
##obar
fluff
patton
dhs
##bard
perth
visc
totaling
meadow
##journal
waged
bracing
stickers
pomp
lec
##base
armour
lc
##ivo
dove
successive
freshmen
collaborated
rapids
stereotype
coliseum
segreg
alliances
slopes
raping
hewitt
downgrade
homegrown
buildup
ramadan
##aguered
egregious
##pieces
##ucous
irwin
blackhawks
hesitate
stella
implicated
lobbied
iz
##union
culturally
domino
environmentally
ponder
onc
grub
wrig
denim
hawkins
awaits
pilgrims
noir
cinnamon
foe
##hots
##avis
rematch
##lusive
swimmers
beleaguered
ner
tame
angst
precar
reminders
##wer
portraying
vets
##db
imam
swoop
##working
goldstein
recognised
jewell
aspen
buffet
bumps
dashboard
semitic
medvedev
ari
greta
dix
enig
competes
prowess
defenseman
##afa
dimit
converting
brushed
##venir
mercer
resurgence
demeanor
oslo
787
goers
gunned
24th
tabs
##tures
assurance
squarely
usatoday
fuz
##mani
hamlet
crocod
lafayette
outfield
erratic
accordance
enriched
hastings
##ng
pavement
1936
deploying
addictive
bewild
harrington
30pm
furlough
medalist
volcanic
##rings
hemp
alum
spate
##ctica
totaled
harmless
gandhi
##ulton
bartender
chamberlain
prair
abys
nonprofits
gerard
cues
##87
onsl
##oba
1412
romania
rudd
roundup
lingerie
figur
eclips
##owell
##ptons
presided
##ewski
tagged
retrieve
furnish
tlc
##enting
underp
defy
authorize
blister
imply
mcdaniel
panicked
somers
circumstance
rituals
kourtney
surn
loophole
ostr
retaining
sidewalks
combinations
referenced
777
bolstered
cinder
##isen
forc
patriarch
tolerated
hirsch
noisy
spoiler
hustle
nino
##ahon
chrom
wilder
overseen
pais
pronounce
relocated
lefty
ambr
demar
valuations
cameo
dorn
hunk
unab
mankind
##tingu
grammar
preston
tributes
steenkamp
pharmac
sinclair
insign
119
##cloud
treasures
grievances
peach
asserting
taj
deposition
fy
correctional
spans
friendships
vulgar
soot
winery
disclos
mclean
1942
kraut
##rium
kuala
burk
rik
##32
##igated
##obama
coherent
conglomerate
zac
hems
uptick
excurs
turbulent
volleyball
##iak
##inka
bett
iceberg
assertions
antarctica
usda
souvenir
kidd
babe
screenwriter
daly
##ream
yous
boardwalk
entertainer
diamondbacks
exploiting
cobb
reza
presby
slips
slaying
repercussions
beams
huh
hasan
offend
shortfall
ballmer
erotic
brazen
concluding
narrowed
extortion
equals
noticeable
preacher
elton
virtues
promoter
withdrawing
##withstanding
adulthood
deng
flashed
##contin
##iera
##brenner
shooters
sweeth
fatt
exits
outlines
sharia
necklace
dotted
##adh
countdown
aar
copp
pins
townhouse
periodically
adamant
inflammation
synagogue
##erland
##emoth
brits
booksh
ensures
anticipating
##agua
behemoth
replaces
violently
famer
cliffs
rwanda
c1
clegg
brood
##white
presenter
##entin
cubic
discharge
ropes
##antically
feathers
roar
##ucus
insect
precaut
randolph
methane
methodist
notwithstanding
exor
traffickers
erected
shorten
homicides
limbo
turks
rosenthal
vocabulary
certificates
tatum
unsustainable
pag
vowing
##jones
manners
salesforce
sensibility
ignores
wenger
cane
elis
mellon
kep
ratch
supers
obamas
mushroom
inspires
lori
spoiled
moll
cro
##anni
hurley
moisture
sweethear
precautions
hib
hugging
##illard
travellers
attribute
blasting
caitlyn
fanc
##vd
extingu
glaring
##aldi
elliot
awakening
ndp
rost
congreg
##ansk
presley
taller
solemn
invari
underperform
idle
consolidate
awakens
thugs
generational
sharper
renamed
sutton
gears
tiles
restriction
tossing
zill
mustang
attendants
adversaries
trailers
enqu
bodily
metabol
vance
beware
conquer
brees
protestors
royalties
frig
repression
flipping
smack
knowingly
conceptual
mccorm
embraces
throwback
lyon
deductible
dood
##auth
discontin
torre
##xist
vein
breached
skyl
moran
waiter
abedin
waff
mcgu
cochran
dine
##bread
clinch
koran
malfunction
siber
meek
morton
heller
pawn
##eyes
valencia
cill
leuk
defying
retains
##erte
insecurity
thinner
kushner
persever
330
nassau
onetime
prius
upbr
throng
embro
horrifying
abduction
##inav
agr
albu
styled
disconnect
sput
##grass
armies
thy
deli
snub
revisit
##athom
resonate
unavailable
jp
raucous
finalist
liners
undertaking
1m
capp
pug
spelled
perched
flats
wildfires
detonated
ripping
arthr
edwin
##ussen
angelo
witnessing
##hoff
bred
mitigate
gale
careless
honol
horowitz
creamy
cosmop
lumpur
##iderman
motherhood
laboratories
invariably
coping
comforting
cerv
fats
offending
locke
rupt
strides
decker
parkway
inventor
hesitant
naugh
rulers
ruther
recounts
semic
bursts
##fil
prayed
aless
entirety
shrunk
altar
enormously
disparate
hodg
reflective
distributors
mascot
inception
thrott
coincident
hemingway
incremental
impaired
gyn
salah
##ecked
nonstop
episc
##olitano
deteriorating
becker
theoretical
unimagin
leahy
lenses
##irus
como
spinach
reproduction
nairobi
apocalyptic
boiling
jagger
chow
commonplace
discontent
osw
decree
bitters
##emaker
elm
classmate
cvs
sard
##estones
##isted
directive
estates
growers
caesar
exasper
spanning
blurred
accred
sanitation
heartland
cyberatt
bureaucrats
softer
nos
curated
psychiatry
##ctv
boundary
lanza
zombies
kers
poke
expo
shutter
motivate
zurich
##bot
##hell
heed
holm
submissions
erosion
honolulu
topless
parc
populous
humidity
derailed
entitlements
embassies
demolished
gwyn
protagonist
gou
digs
1937
etern
nour
##ono
britons
hugged
toilets
lithium
jacqueline
harley
vetting
infinite
disproportionate
lh
##eira
evenings
safest
riches
merged
crowdfund
napolitano
contradictory
shocks
tequ
emoji
##afee
indirectly
yorkshire
draper
measurement
melanie
shrugged
odyssey
oasis
procession
melanch
tragedies
theo
offence
subc
extremes
##trod
flair
wrestler
contemplating
sincerely
bows
flushing
sabr
expon
durbin
stefani
depiction
disneyland
escalate
heterosexual
heartbroken
saturn
striped
xinh
##illusion
scour
rested
nicki
boomer
stagnant
cecil
sheryl
overload
coupons
ambival
exceeds
looting
textbooks
watkins
kosher
blatant
##stones
changer
shepard
rutherford
afor
harden
towels
sucked
istock
selig
buccane
brash
recoll
edmon
girlfriends
##querque
distractions
##enth
shor
perc
poetic
downed
warpl
epidemi
lackluster
presbyter
2030
resett
scotts
gentr
commemorate
mou
choking
posh
carrots
sickness
negligence
capitalists
coachella
toned
365
kern
thir
outward
troph
##laren
xvi
emmanuel
esch
bulbs
##orad
pert
squares
dismay
mikh
tox
doj
headset
meats
disillusion
glimps
delinqu
miscar
bulletin
ludic
technicians
culprit
ramb
##zn
joints
bali
dominique
counselors
antid
fielding
lunches
tangled
choreograph
alpine
onslaught
##staking
flare
advertise
leases
brim
mural
detractors
besieged
xinhua
secession
godfather
gao
piers
##ompt
itv
vibr
weights
smartwatch
logs
durst
rican
##troller
##oslav
outages
grueling
obsol
johannesburg
##cz
crad
consoles
##rax
farc
maher
blackout
educating
misman
apparatus
comedic
dong
indy
confess
avoids
therapies
wrenching
stardom
##olin
header
utop
repaired
refinery
haynes
kessler
bis
moreno
customized
fetus
pyramid
pum
slov
flanked
fuzzy
theology
painstaking
charisma
prudent
disguise
scandinav
ultras
ie
reliant
hijacked
##ellations
##attached
kisses
anchored
neuros
gonzales
##ierrez
wharton
couric
submer
transp
127
forehead
java
##itos
##uddin
diff
leveled
undertaken
disposable
sloven
vehement
unsc
anonymously
siegel
intolerance
awhile
wichita
wah
awl
accessed
supplying
edmonton
henn
sloppy
distances
swirling
dhabi
mecca
##oin
nationalism
wasserman
reflex
protestant
episcopal
##law
coastline
##akedown
chronicles
upbringing
chau
hab
finely
artisan
amazingly
ambassadors
rebuke
fulfilled
cohes
##anks
##orting
indign
doesnat
ikea
feasible
cds
##kr
##amins
beforehand
burma
exemptions
redesigned
obsolete
caret
robotics
endlessly
extras
rach
##isson
compromises
geopolitical
fitch
veg
winnip
nih
bambo
sylvia
##onson
mcmahon
decency
skelet
stainless
stumbling
smashing
involunt
crowned
romeo
nostalgic
snowfall
corpse
rhetorical
lak
conve
quentin
suvs
whistleblower
krauthammer
spices
##ghan
burnt
aeg
##aggio
thru
superfic
sustaining
napole
paso
outpouring
hunch
platt
vulnerabilities
2022
empowering
maze
knights
intervened
ion
elle
methodology
cano
transcripts
logging
1933
webc
spacious
arbor
defunct
salty
euph
##umen
campaigners
mcnabb
relocate
##anza
##apest
gunshots
hoop
sadr
##avy
mccann
halluc
okla
locking
buckley
rotating
ascend
proactive
lewand
predictably
guerrilla
dwindling
co2
procure
examines
##olololol
pebble
fodder
curfew
##icion
##ishment
scathing
fisherman
disruptions
hips
strand
##ollen
zack
##uper
sunderland
kingston
mantle
yuk
rudolph
##lov
discreet
hamptons
insecure
141
revamped
mazda
##tf
##onica
paralymp
cosmetics
albuquerque
monarchy
exceeding
inferior
shal
##atti
marches
handcuffed
sq
helena
underage
routines
ceremonial
warsaw
##ienne
interiors
##etsinger
26th
mutually
unveils
deserted
##fur
expectancy
narcotics
cah
##cup
strawberry
##cile
mathematical
jov
argetsinger
sourced
kathryn
gothic
trophies
crock
##acey
coerc
safeguards
scenic
astounding
bosnia
tibetan
##alach
comptroller
gull
sche
digitally
comprised
bannon
shroud
kristin
rewrite
buster
postings
forcefully
##vest
confid
perpetual
tors
georgian
conception
ptsd
demons
blockade
nbcu
monstr
distributor
carmelo
##alan
thats
grays
raqq
overlap
botan
brittany
domest
negotiator
thanking
vaccination
fenway
##change
##thal
raff
sailor
##ye
##amps
##erville
124
developmental
bots
attire
handsh
senseless
1929
slumped
unilateral
gucci
prada
##endously
joanna
defied
politely
broaden
subjective
sak
lapse
##ongo
1900
steered
extensions
wonderfully
kicker
reconcile
excerpt
ambiguous
lanka
recorder
##ophys
##iciency
gutierrez
infringement
unequivoc
lich
nou
##iola
##harmon
alej
##fw
adept
regained
cherished
emmys
##bath
hailing
insanity
programmes
rumours
calmly
vou
veil
combo
steadfast
meadows
handwritten
scenery
seac
candle
rosemary
philippine
cask
roaring
pacers
isle
##ogg
recommending
vacancy
begged
livelihood
bragging
exquisite
cw
socio
settlers
brightly
musicals
disagrees
homelessness
205
citrus
raph
occupying
##otine
spieth
subord
allowance
distraught
emergencies
swimsuit
irresistible
##abl
legalize
ambush
succeeds
draghi
617
disgusted
severed
humiliating
nutrients
jing
##oque
grit
automobiles
budding
diaries
taping
foy
mta
leopard
##comm
subscriptions
noodles
amreport
defund
proteins
breastfeeding
cic
##istries
tasted
klins
fingerprints
dalai
engulfed
ordinance
dzh
cheng
##estine
valve
viktor
bending
##rice
andres
suisse
gund
humour
romero
##iasco
prairie
presbyterian
pregnancies
paradig
catalogue
lans
##green
mushar
dvds
oysters
liner
##opf
abound
enclave
amar
dissem
flirt
realism
biologist
persuasive
renovations
jurisdictions
fad
##arte
retention
wrongful
lombardi
foray
emigr
orderly
divides
nonvi
brokered
jordanian
mikhail
##84
122
executing
mildly
trespass
cramped
erased
chilean
unesco
misled
physicist
minimalist
rye
pupils
glossy
semitism
manuscript
eerie
pimp
325
dealership
bruised
hypocr
moraes
klinsmann
pim
boone
imprompt
convened
##31
wast
##ivation
tariffs
budapest
determines
apologizing
##mor
herrera
pollsters
moons
haircut
##ateurs
factual
menace
martian
clarified
hazards
caveat
fahren
hydra
winnipeg
##via
worris
birthplace
kirsten
thump
sprout
bumped
##ilitating
aiding
##wrec
##weeney
risking
gis
wrath
menendez
livingston
afforded
impromptu
compass
##ffe
congresswoman
traumat
intimidate
##imo
jackpot
hindsight
##actor
invade
fabrics
acoustic
##terms
palpable
flashy
radicals
stalem
enquir
rechar
brighton
oculus
scientology
kass
presse
debunk
microw
nascent
empath
implication
municipalities
template
nudity
falk
##chio
##beh
imagining
fetch
disgraced
buccaneers
pax
fleeting
stalking
negro
configuration
fiasco
wester
wahl
shady
plut
gron
##rios
eruption
lewandowski
cutter
diva
gallagher
garde
coburn
tamerlan
gwyneth
nile
thiel
pointless
crimson
oust
pathway
reversing
nursery
zam
happiest
loyalists
detainee
cuff
oils
darn
wandered
woz
donuts
currents
tequila
##ouk
treacher
bathing
##rehensible
lauer
##giene
cale
##loo
##enuous
twain
irvine
etfs
tolerant
geoffrey
##gall
##oting
yep
##ilee
##erved
strikeouts
forgetting
grossman
fragment
underestimate
dzhok
forwards
olympian
fixtures
hygiene
shopper
fledgling
barkley
compounded
scoff
elit
126
dai
onset
immens
rebounded
behaved
pedal
barbour
wolver
autistic
eleanor
340
dragons
editorials
caliphate
coupon
succeeding
##ecr
deen
colt
singlet
beneficiary
fatty
snowy
lava
##valued
yum
##4ap
automation
42nd
repayment
worrisome
storyline
grenade
##bush
offences
adhere
swearing
grimm
awlaki
mired
drained
27th
julio
retribution
chu
twink
##azing
mcbride
skinned
raqqa
italians
somber
paced
stool
refinance
parano
##spe
portrays
cctv
stopp
philharmon
roofs
1410
julius
remnants
seacrest
##vist
beasts
speculative
teller
28th
crippled
##esson
elegance
misunderstood
gould
##itational
impasse
needy
homest
bulgar
improvised
cured
rund
##hin
##ceph
musharraf
##athed
confuse
grimes
welles
morse
petitions
corresponding
societal
salsa
cosmopolitan
payout
agence
overre
emphasizes
glacier
zoning
##lier
##orient
hepat
appell
consultancy
puzzles
becky
prague
##andre
##aughey
upsetting
burbank
giov
slamming
wrestle
alienated
##ienced
##etter
##ectomy
gracious
grinding
specified
termination
pledging
##girls
shaved
genesis
immortal
dexter
sideways
cashman
henri
loretta
dissidents
eminent
ticked
stemmed
jinping
practitioners
eater
ness
lois
hoops
##hany
trumps
systematically
risked
pakistanis
weakest
televisions
separates
cheerful
##non
##inence
disarm
terminated
fahrenheit
jc
lashed
##aru
sailed
##ifty
sipping
##assis
accents
testifying
lockdown
underscore
protracted
##pi
worm
lawful
souza
##cross
purity
andreas
aitas
rasm
##dock
sporad
121
mccull
trait
deserving
hanc
leve
##yf
zag
smartest
hydro
##38
##orld
##inky
##fner
##arde
seizures
whatsapp
appalach
nailed
cornerstone
snatch
gems
wapo
aflo
##flower
##holder
muddy
downgraded
poultry
waging
##rag
marissa
evasion
jeanne
flawless
inept
teix
suspense
width
##tar
shay
informing
malt
##afta
scrapped
crom
modernist
##57
limb
errone
indulge
retreated
ireport
underestimated
##lat
##agle
strewn
infield
missteps
sucks
##breaker
pilgrimage
incompetence
fand
gart
stewards
##media
translator
mits
sheila
statesman
gilmore
distinctly
cautiously
##xuals
chung
retrospect
yee
compton
layered
knowledgeable
premiered
hipster
firefox
cillizza
leukemia
mism
competence
texted
leveraged
alleviate
mald
##uh
anbar
swagger
skim
magnate
afloat
##heed
embell
soros
ramifications
jarrett
meteorologist
shave
##ffman
modify
coolest
##rieu
##mc
sheik
simpsons
turtle
approves
queue
tarantino
stared
damning
melody
papa
plank
##ographing
schwe
##character
exhausting
goofy
spiegel
##qua
inducing
continuation
disapproval
##wed
##unity
possessing
anglo
luxem
hampered
nib
£10
liberalism
hypothesis
pies
winger
swaps
morg
turtles
310
barbar
witherspoon
unres
backbone
injections
ardent
##appers
brilliance
fetal
auss
banc
tod
##odies
taxis
luncheon
##69
fearless
ethos
accuser
dartmouth
paw
emil
lowell
quipped
solicitor
blackstone
admirable
calderon
pfe
##hum
depict
restless
cnnmoney
neighbouring
sociology
tractor
piling
subvers
statut
silently
##block
mammals
hepatitis
impuls
nyu
caucas
dereg
extravagant
kodak
prosecutions
resolving
nope
epip
archdi
buzzing
antonin
allocated
commencement
guth
hoot
##cases
handmade
mullah
analyses
fertile
hijack
grenades
evoke
gug
sims
besp
##sted
breadth
lodging
empowerment
chatted
wann
doubtful
coincided
alarms
chapp
quaint
mcmill
perplex
##esting
jewels
bulb
bearded
invitations
100th
logistical
tenor
stupidity
##jiang
emerson
slows
worthless
bursting
previews
corridors
kazakhstan
##gles
exited
vargas
nieto
##wash
recoup
twitch
commercially
posey
bridget
misspelled
quran
kins
##olta
devout
##apeake
synonymous
##echnology
##now
traps
renters
chateau
bona
dahl
##paper
fallu
residences
gimmick
flamb
barker
propel
##ippy
inventories
booed
segregated
mn
##arro
##ortment
impecc
##ymes
dismantle
inaction
##auch
knack
burlington
primitive
wiret
worsening
paranoia
token
##acements
overreach
stripping
emeritus
unfavorable
soften
rusty
trolls
meryl
##dar
fortress
keefe
hardcore
murderous
erica
coloured
oft
slater
researched
whitt
highland
144
settles
hazel
suicides
funerals
splits
triump
interc
passers
sudanese
sped
##tra
flops
consisted
vocals
kardashians
execs
##px
##human
espress
motivations
gearing
remembr
jaime
sewage
duggar
fs
clicks
donkey
thwarted
chesapeake
##mount
tendencies
optimal
misunderstanding
hens
tuf
assassinated
allergic
jakarta
sabotage
lettuce
##cat
perch
hotline
observes
crusade
unexpl
dzhokhar
dl
##iona
heartbreak
thames
decay
billboards
antiques
##ws
paj
tempered
ricardo
dillon
heinz
nir
chlor
landrieu
handset
frug
unner
canat
receipt
superheroes
paychecks
whichever
parcel
slum
georges
curators
paddle
gerr
##cho
crib
everett
raiser
evaluations
teixeira
tds
dehydr
rowe
barracks
unnot
choreography
##anse
sheff
polk
progression
lewinsky
rink
tus
weave
##trump
30am
illegals
ronnie
submitting
encrypted
##ocrats
illuminated
uconn
##fell
cassidy
##busters
monologue
barre
ferocious
domestically
haute
manned
relinqu
denounce
discriminate
wilkinson
steroid
rizzo
bt
carve
goodwin
melvin
briefings
375
undermines
hauled
##mic
##hed
##onge
##estorm
slur
interns
138
beginnings
duet
modestly
havens
elk
villains
bruising
backlog
absentee
reeves
enrique
blvd
1943
fetched
polarizing
zillow
leary
climbers
spinoff
sequences
camouflage
scors
boasting
funky
fema
heathrow
exhilar
riy
quasi
slay
hairst
synchron
scratching
untrue
progn
toms
salman
humorous
permitting
elevate
ripple
surname
##hat
ley
attachment
tempo
bailed
cowork
disguised
grizzlies
sizz
libby
applicable
seamless
quintess
plumbing
flamboy
##lay
miner
homec
progressed
dismissing
canceling
overcoming
malone
stuffing
weir
devon
malala
adela
bluff
radios
hybrids
curtains
unreliable
herm
##inty
detached
freezer
trey
tandem
elic
##million
##agus
reconn
disrespectful
guggen
137
1932
vera
commanded
implants
onlookers
nicaragua
aura
##rine
statutory
acorn
coax
eyel
legislator
sacrificed
ernie
incidentally
apologizes
crammed
noticing
spikes
blended
extinct
hamburg
batht
gowns
confidentiality
intrigue
embroiled
dung
£7
##³n
stag
patel
mclaren
stacy
drinkers
reinstated
pioneers
##enton
antic
exploits
hord
##issible
democracies
undertake
tyranny
scept
##yans
##kat
energized
##mania
imprint
prosecuting
archaeologists
gotham
4s
chol
##anky
plantation
diagnostic
quinnip
crowdfunding
baza
swine
hopper
siem
tnt
troupe
pedig
sult
guang
copied
lifeline
undated
thinkers
##bright
palette
supremac
lieu
guerrero
unmist
yar
##ifference
starving
sweetheart
crut
malia
leasing
##ussy
##ricks
reluctantly
diminishing
confiscated
nguyen
bax
weis
unru
hospice
referencing
##azzo
pipelines
quinnipiac
glue
ripa
dag
eaves
gaud
##croft
shit
##opath
caves
plural
arias
doming
##garner
nusra
shuffle
unquest
airliner
painters
lockheed
scorsese
##46
plaque
sprayed
shouts
cone
##ichael
hostess
cyclist
disrupting
hancock
ruben
##cal
##oton
bohem
camar
exercised
adolescents
pinn
rahman
distracting
##estration
villas
##erdale
interacting
arcade
piet
chaff
mccr
goalt
jihadi
pascal
pty
polio
receptions
electing
##inck
franken
prohibiting
sergey
unnoticed
sas
ons
frail
##ighted
damned
favorably
embroid
consequently
hubs
fundraisers
salads
tantal
##ichi
indifference
##bral
steinbrenner
warehouses
laureate
tik
outage
maynard
accessing
ludicrous
rss
enron
corvette
cloudy
consciously
cartoonist
umpire
luxembourg
behaving
unheard
blazers
swallowed
immensely
ploy
##atham
regimen
saturdays
##kg
recovers
flier
memoirs
unsurprisingly
uninter
corb
kidman
fresno
alam
brody
secretaries
batters
moroccan
nightmares
fom
nug
##ocial
cofound
schn
buckeyes
hoyer
nonfiction
storing
muller
mcgraw
jails
pla
swell
withholding
univision
##olla
untouched
sugary
##parable
deepening
950
philharmonic
guggenheim
kou
heas
disin
communicated
inel
trag
assortment
##shield
tanz
gigs
crafting
incorporating
heirs
##irk
cling
##ignon
downfall
conducts
hyatt
papal
renegoti
taxable
applicant
venom
##olitics
rhythms
edgy
treason
bombshell
resembling
adorned
leeds
unused
redund
davos
tremendously
unbeaten
##casts
coney
clive
stevie
programmed
fsy
##link
##ithe
amused
distorted
darfur
venerable
decorative
uncontroll
##ppy
veterin
postpone
rollins
volunteering
resembled
patti
stil
sane
lurking
funniest
ranc
quinc
swollen
kindly
disclosing
stalemate
archdiocese
ferd
##ivol
particle
doubted
mechanic
littered
u2
##osexuals
midwestern
interpretations
btw
flic
strife
stringer
schae
halting
entertained
regulars
containment
stakeholders
unearthed
sandals
disgrunt
hershey
outland
##ptuous
dolly
sweeney
##05
##ieg
##ermo
sophistication
maiden
waning
jerm
spagh
licence
tunisian
exhaustion
hiat
##iem
##laz
amer
gra
scape
##intosh
##rette
camden
##ync
groundwork
biopic
sarcast
cocoa
acronym
martins
replacements
ratios
dreadful
lul
##oro
##ilant
dea
repud
faiths
spectator
antibiotic
worsened
dt
seep
processors
folding
ode
shuff
garry
squab
holloway
sanity
bananas
vitamins
reliably
precarious
toby
clap
tuning
warranted
za
orte
##avers
castillo
recreate
##azir
sprung
compensated
disintegr
##retched
babys
divert
jensen
132
appointees
assemblyman
lantern
naughty
dipping
manor
decis
womb
osbourne
jammed
huddled
bitterly
kant
##cam
roaming
sonic
digg
stalls
vineyards
quarterfinals
wacky
seismic
rite
##allen
arb
cameroon
deteriorated
fulton
anew
chyna
majestic
msft
calculating
pillar
bipolar
pioneered
fellowship
dermat
shrewd
mays
##anos
dept
climax
b1
kev
expresses
diarr
loneliness
dues
##idan
##brush
##why
handcuffs
##pill
scaling
##awar
##ooned
wilde
ridley
symptom
purportedly
inheritance
ely
##cers
repatri
perfume
liberated
journeys
diligence
fax
adelson
stacks
thereas
coated
markers
watering
suspending
ruler
hearst
heyday
fooled
ejected
iw
monaster
wozni
##vre
compel
firestorm
yielding
trillions
adrenaline
ascent
bravery
mastercard
filthy
confessions
promo
connell
sequestration
##atal
##omas
##ogne
philanthropic
##birth
soak
lookout
basel
affordability
foreseeable
toled
##adas
spoof
militar
voic
##utherland
vonn
exacerbated
contrasts
taboo
familiarity
masse
inventive
adversity
adelaide
horton
lords
unborn
courting
caj
kayak
continents
attribut
sargent
enthusiast
unforget
vaughn
bst
heap
withdrawals
pillars
bumgarner
inundated
##95
##pret
casa
pigeon
turbulence
1411
hiatus
##rose
hubby
shedding
visceral
##xtap
mcqu
escap
doorstep
kensington
##oku
evid
removes
miser
##franch
anecdot
ney
query
intrusion
dramat
imaginative
espresso
yun
##igans
hardened
loaf
champs
malk
mailing
manageable
dye
embryos
intoxicated
ortega
cellar
lecturer
michelin
partisanship
submerged
##zone
acclaim
lauderdale
##andan
windshield
riddled
blooming
understated
grossing
shameless
##volent
##alis
##uga
presses
wonderland
hess
veiled
charred
swirl
quincy
sd
29th
##imageurl
superdele
instituted
kurdistan
pundit
pipp
juda
frontman
##unta
avoidance
molecules
knocks
sorting
mortal
bargains
haird
prover
snark
rustic
troopers
vuitton
hemsworth
##ugh
tweak
intellectuals
##peace
bea
payday
continuity
##ofi
sculptor
maverick
viability
diversified
lyons
contempor
concedes
unintention
garnett
##four
plush
overhe
slightest
415
##warts
subtly
kashmir
bystanders
comrades
##eties
clinging
scoreless
stamford
rubbish
718
cultivated
thund
##aughlin
surrounds
puj
alejandro
yak
##gang
redirect
ignition
529
toddlers
ushered
##itous
placebo
praises
##jor
adri
genres
transgr
##si
##flies
rediscover
##aldo
domination
composers
##gam
##may
##stant
deed
doherty
##undy
autop
windfall
poisoned
horizontal
pans
##fred
juxtap
isolate
intellectually
magistrate
mj
opaque
tpp
woven
##lift
ensued
kosovo
semiconduct
bamboo
hopping
suu
induce
reforming
clerks
disadvantaged
appellate
3m
gly
kaw
coined
takeaway
curved
intrusive
hirosh
angrily
agn
convict
despicable
interpreter
fridays
##ilda
earmarks
informant
wallets
reimbursement
contagious
istockphoto
asserts
harding
aspire
spells
absorbing
resonance
##burs
underc
powerless
woodson
weighted
sophia
mesmer
impartial
lull
vetted
##gies
brunt
patter
refunds
thaw
##tert
alask
##ibus
legged
steward
melinda
nods
accelerator
transplants
singletary
vign
##estick
##igham
spills
persuading
eduardo
preach
fanfare
velocity
cess
##fth
thro
schooling
walled
omega
insensitive
oaks
victorious
feminists
sturdy
##aret
fatah
consisting
urgently
laurence
plainly
dianne
smoky
##ifferent
vapor
##orgh
stearns
##oway
ames
##avel
##affer
revoked
disgruntled
lore
lym
plent
farhi
##patient
tet
##kies
##unks
menacing
messed
cabins
oceanic
bloated
##eaux
jaws
vouchers
##uru
hypn
cheerleader
jewellery
presiding
131
complicate
chronicled
molecular
splendid
supernatural
spaghetti
bosh
134
emblaz
paradigm
sheffield
myfox
syl
limp
terminals
memorand
dickinson
warplanes
tanzania
noises
congressmen
neurological
tutor
undeniable
##aterally
collaborating
gigi
exporting
desserts
vant
##lists
##ifiers
blades
announcer
162
##zewski
outlining
generator
herring
guer
poppy
##uthan
oversized
correctness
bluntly
takers
transporting
departures
bergen
seminar
emory
##eke
multicultural
gosh
##ardy
chartered
##zhou
metallic
##wy
moose
bobbi
gangster
helmand
mch
wrought
##efa
##np
asians
##endas
photographing
kershaw
roch
courier
diversion
koh
pudding
zig
arter
epicenter
deterrent
stout
ventura
mutations
bhut
incarcerated
skewed
paralysis
tragically
collided
numbered
octop
probing
##theon
czar
moff
##dick
conor
viewpoint
##john
cynicism
archaeological
eul
limelight
soprano
niro
rg
drilled
medall
denouncing
savior
wealthier
tidy
savers
##ertory
registering
python
sutherland
warmed
connolly
generators
closings
macar
jokingly
crooked
flanagan
jade
##omen
amir
pauses
motif
nicola
megap
2025
blazer
contemplate
anguish
belarus
freeing
conflicted
gaal
psyched
kyi
hysteria
whil
##ogo
breyer
classification
favoring
printers
olig
recruiter
stressing
deceptive
napoleon
rife
##zine
hastert
archie
uttered
##door
variables
##qvist
roam
dulles
indiscrimin
solace
huang
marshals
neoc
concier
tayy
canadiens
cesar
zeit
teaspoon
lymph
rave
##nis
crum
inexperienced
collegiate
sill
gripping
triumphant
couns
booster
criss
##swick
leafs
precipitation
##sher
remix
142
mainst
multib
bullies
wasteful
manson
avocado
rundown
##waters
communists
picturesque
contingency
barricades
arian
savory
horribly
bracelet
anwar
agost
combating
toughness
threads
remedies
tepid
therapeutic
emboldened
mclaughlin
scapego
queries
##2010
prioritize
impatient
edith
airfare
metre
brainstorm
partnering
##ivism
goats
##ehler
##itic
##ilot
##uble
takeoff
classy
invaluable
##adden
howe
awfully
craze
unwitting
sues
carrot
overcame
pach
ingest
##ustered
##uca
indisp
backer
farook
antide
fracture
takedown
##rama
frat
##assic
striving
##egal
baffled
mesa
poking
##ibo
flattering
yellowstone
assassin
oates
##uges
joanne
predic
##rums
homecoming
biod
nominal
achilles
sweetness
faults
vomiting
emblazoned
gp
sear
##tops
beltran
harriet
petit
augmented
plugged
deem
##derm
restroom
waivers
nicotine
##tsy
mri
jackman
stamped
dolphin
topple
##killers
##vez
gogg
jojo
prompts
murderers
occupants
poroshenko
obligated
baird
colossal
kitt
##ikov
influencing
thinly
##hist
plagiar
landf
disob
phd
##athlon
pao
darkest
subtit
torso
##kick
##married
mazur
schizophrenia
##adio
marred
conditioned
dunkin
corker
itinerary
hock
tumbling
uefa
wills
heartbeat
kissinger
shabab
piazza
enraged
alps
drib
drifted
##urrent
payer
cavern
##ointed
fluids
adapting
swaths
elisabeth
raphael
bazaar
ehr
spilling
graft
##ambour
1906
pessimistic
tsp
clocks
carbo
buick
snatched
noticeably
tacit
antarctic
bav
euthan
sled
drizz
biking
scooter
drafts
##itto
podesta
rcmp
thirteen
baz
forgo
divul
pharma
scall
infinity
##oza
ramadi
gleaming
kumar
##kan
debilitating
softball
busting
tacos
mozart
voucher
unforgettable
147
keynes
mosaic
spreadshe
cerebral
fascist
chewing
schneiderman
##stands
mango
weekdays
burt
motions
collapses
marginalized
kauffman
sublime
beaver
antip
##ynski
raptors
missionary
hubble
upgrading
lancaster
superficial
vars
##n1
##inch
sule
monks
customary
welter
bosch
ailments
gaffe
zay
evade
quits
sensing
namesake
dissolved
dispatcher
payrolls
clowns
##iator
##elope
##leys
roommates
rigor
coincide
constituencies
dmitry
ration
crescent
uniformed
##bid
diploma
mythology
intermediate
whilst
##rals
earrings
precurs
groin
temples
regan
mirrored
plentiful
multibillion
prism
##istro
repertory
quell
insure
puppies
##wyn
grotes
agony
catap
tablespoons
db
##aise
geo
massively
overrun
arthritis
shriver
emulate
inducted
rapists
ensured
repealing
infidelity
ausch
leaps
teased
preaching
delo
rectang
gyp
lach
vans
modifications
differentiate
jonah
tahoe
rehearsals
gloomy
guthrie
##andi
villanova
bathtub
##icacy
ars
unfit
comparatively
enthusiastically
shiites
reproduced
fossils
cumulative
rasmussen
##rase
##alone
bowen
rodman
clicked
integrating
jerem
outfitted
##ilis
neu
flaming
painkillers
reviewers
sweets
hyped
brunswick
abolition
auschwitz
420
annan
discovers
hearty
alexa
hm
naut
stonewall
unimaginable
bouts
##74
carving
workload
glover
corcor
fitbit
mcconaughey
judaism
medically
##ementioned
footwear
bushes
projecting
##aea
cancellations
antidepress
cary
##oglu
##oppable
innovate
levinson
takata
bolivia
noses
stash
kne
grease
erickson
alligator
aforementioned
hul
wry
##iculous
worsh
polarized
shredded
vehemently
nonviolent
tayyip
unacc
133
petrol
landfall
escapes
concerted
validity
carlyle
depleted
poc
mores
dias
constrained
ridicule
acquaintance
sana
31st
mixes
beckett
boud
hahn
##aport
sonoma
lamborgh
prevalence
finnish
beige
columnpg
unwel
gustav
moyes
dd
unreg
sermon
retake
primer
cooke
hassle
judgement
vinci
corcoran
undet
affirmed
ballad
bae
elevation
lager
pst
wc
##olith
##ardon
##iji
viking
thunderstorms
overp
cupert
astoria
##ilitary
disparities
zuma
programmers
eroded
damien
sucking
jolt
reverber
ponzi
humiliated
muss
sow
##tro
implying
##azquez
admon
##comb
hamburger
waltz
ridiculously
lemonade
disconnected
demag
jarring
bulldoz
redevelopment
outlandish
churning
ama
imitation
terra
waterboarding
##orrent
290
mandarin
hanna
noc
##aning
coli
caul
syriza
##orrh
greenspan
dudley
sweatsh
toledo
pujols
shoved
braw
summons
cupertino
osh
wach
##igating
##omey
flowed
mindy
sherlock
planetary
notoriety
nuance
##free
##ousing
parachute
pong
##mall
hep
arming
adler
decry
breeds
commenters
peta
1935
simplest
dissatisfaction
blistering
stym
edible
##mington
##arrow
380
paisley
##ousal
klux
hobbit
odor
caterpill
mugabe
disapprove
perilous
fertilizer
tusc
theological
foreman
debra
palms
birch
precincts
clutching
anecdotes
ketch
gardening
inflict
nd
vor
invading
lara
168
tarmac
sleeps
instructors
lorenzo
densely
brocc
initiate
inspected
illust
rapist
manipulating
nemes
definite
mendes
tud
mee
perj
longing
slender
##sworth
override
mishand
##cards
georg
sonny
mispl
veronica
expenditure
pike
##eder
asym
##icef
##orkin
##linger
frankel
transformative
collaborator
payton
faulk
decorating
cautionary
cesped
embodied
leib
parameters
kellogg
involuntary
sisi
abl
flocked
##umpy
passionately
duterte
decorations
tango
boutiques
conveyed
shorth
chord
splin
scold
ministries
esqu
respecting
pettitte
mf
##ergan
anarch
relish
pregame
parity
barron
broccoli
##ril
##vell
forrest
overview
parlor
audits
wrecked
decreasing
zah
sud
periodic
hunted
qualcomm
eich
msn
libel
evidenced
##arat
##grove
lott
immoral
linear
dewey
bittersweet
fus
fdr
anad
frivol
shortlist
swansea
simmering
##rof
cooled
felipe
hypocrit
##rates
##65
alamed
goff
unicef
##ansky
serp
focal
substit
##ogenic
bitten
lill
scots
homepage
civilized
marcos
spaceship
blazing
starved
##ijah
establishments
frankie
weaponry
inefficient
dismantling
##cap
aficion
prescott
poehler
limous
1934
payoff
charlott
obscene
carb
derided
excesses
grapple
unilaterally
imbalance
alain
formats
235
drawer
coffers
skyscraper
##igl
##iken
reviving
transformers
liaison
cohn
sixteen
predatory
pharmacies
dreaded
frigid
##rr
senegal
transmit
expressly
supremacy
booths
scottsdale
cespedes
hating
nes
caracas
deco
farrow
probes
constellation
creeping
julianne
caregivers
gim
chong
hooks
denny
dizzying
memos
salazar
banging
##tale
overhear
##vester
mcne
intensify
pistons
alienating
clutter
##idious
provocation
statutes
divest
bradshaw
fragrance
cherok
barefoot
dwayne
##quel
copeland
bbq
karaoke
intermitt
waived
calculator
handguns
candlestick
unresolved
wies
forfe
numb
homophobic
photoshop
tcu
##bay
sykes
celebratory
squat
incarnation
nipp
shines
imb
disk
souther
boycot
auditors
lagging
artificially
contradiction
pedigree
impunity
##iewicz
frontline
aman
wifi
##iw
sponge
unmarried
revisions
khalid
hok
##rador
nears
occupies
coco
##ebra
superstars
claudia
lister
dover
willow
guit
preposter
uncanny
golfers
1928
repealed
gior
excr
disen
affinity
untold
##panz
krav
diameter
scanned
pragmat
oblivious
cinderella
reince
##ibur
milbank
corrob
refiner
rousing
thermal
nordstrom
subtr
artworks
mcderm
juror
kleiner
russo
eschew
encycl
reinst
naples
reckoning
enlighten
ackman
taw
##esters
doo
suffoc
tanner
ceramic
unbear
##agra
2050
agendas
assim
superpower
guarding
heralded
punctuated
hydraul
lends
vile
##edes
##utter
minivan
melancholy
##tc
uptown
transf
snipp
wordpress
bearer
admirers
opioid
##ilo
##entious
136
rounding
psychologically
##estyles
bruises
lamps
quarantine
pesticides
pounded
yates
##otters
qualifies
bicycles
mistrust
6s
##uve
cropped
##ruff
tesco
##ggies
dowd
pulp
collaborators
showcases
wrigley
##hel
trin
craving
swarm
skirm
occurrence
eras
unfolds
conspiring
concentrating
rookies
geeks
discredit
heist
knowles
escobar
scanner
dangling
monsanto
##nox
##hoot
cong
timeout
idios
bitterness
aguil
vengeance
upstart
##ensual
trustworthy
deprivation
chestnut
bookstores
ineligible
lte
cara
roared
bothers
futile
garrison
batted
nodded
##creen
##arine
hai
wording
circling
multit
tonnes
remembrance
adhd
peruv
crem
christoph
surfers
seminal
puzzled
##continental
cofounder
##meal
brigham
contraction
defra
schoolchildren
cyclone
carbohydr
##mies
medina
hotly
maloney
nimble
hastily
wahlberg
alba
##ifts
combust
##class
climbs
philosophers
extravagan
dary
boos
nationality
vicinity
relegated
metabolism
flot
quieter
##abytes
ecstatic
##ogues
evokes
needles
ravi
complimentary
pang
shortened
unfounded
eyeing
congratulate
unstoppable
leftover
##ecker
devin
greenpeace
wwii
baucus
persisted
utilize
showcasing
prosthetic
##oka
strikingly
centrif
treacherous
##andering
diapers
fluke
tattooed
stacey
clapper
billie
greenwald
biographer
dropbox
rasp
memorandum
excruc
kios
##pour
disorient
##weights
secondly
failings
ruiz
oat
exiting
mariano
attest
boc
fiesta
frisk
canine
disorderly
hesitation
stockpile
##advis
payouts
hostilities
misuse
pepsico
##dia
brainer
miracles
buffer
g20
conund
sciss
contending
chimpanz
gynec
##uire
schilling
modes
vald
benches
sond
clusters
cringe
suspensions
cannibal
excruciating
rak
##coll
##het
stoked
thrived
handlers
directv
pontiff
indispens
pastors
antis
acknowledgment
professionalism
##etus
termed
hym
diversify
kop
##orably
leased
bled
yourselves
responsibly
gasp
wheeled
sart
sherry
decad
backhand
sandler
wiping
drifting
boob
weathered
purge
platoon
mockery
cursed
priceless
##iromo
roma
karma
aziz
lenny
disenfranch
cache
tout
youare
commuting
showroom
##contr
biases
scares
dictated
cinemas
ottoman
##iets
stunts
jams
##ppe
scler
nighttime
encamp
tammy
natasha
##idd
obnox
headlined
intruder
blinds
astor
##assi
meticulous
christensen
disappears
jurassic
unprep
corpses
crawling
mckay
cheeks
##imens
gogh
surfer
##itsch
matchups
arranging
anchorage
giddy
hassel
amr
incurred
accol
bochy
audrey
scrimm
baskets
puzzling
salmonella
bynes
recep
attain
verses
windy
councils
cruiser
pearlstein
scrutinized
uter
whim
cland
crave
charger
obsess
retiree
slaughtered
##good
weeds
nestle
hikers
inconvenient
cpr
cucc
tuss
softened
celine
anz
exposes
organisms
##compan
vacated
blossom
jett
##owan
shaba
ensh
mania
staffed
truthful
mansour
squeezing
nitrogen
clamp
upshot
harming
rods
flea
insulted
unrestr
sultan
drip
indifferent
ideologically
violet
178
##street
ethiopian
ashe
##opol
pleads
touchscreen
jacobson
stabilized
bins
##edience
compost
##ipation
rae
hitchcock
jans
##ooga
combs
##apolog
californians
reprim
qualification
hector
##arty
hillside
madele
psychic
robberies
icloud
##elect
shaming
herc
gla
saddle
##nihan
motorcycles
adolf
pixel
vantage
gator
##adia
atf
watertown
colder
therapists
graceful
##rosse
messing
jolly
vitri
zachary
omb
interconn
treasuries
jamal
otto
riyadh
##ilated
139
reconna
tanker
thicke
##loff
##owe
##allo
teasing
undes
textile
detector
orchard
milestones
insignific
aussie
alameda
##isty
conversely
trusting
shipment
vandalism
##antes
jude
bartiromo
experimentation
quotas
fostering
mide
nudge
thereof
farce
boyhood
torped
treadmill
aguilera
strut
baltic
anesthes
tj
chattan
incest
schoen
definitions
preferably
twisting
adolescence
flirting
defensively
condesc
bader
austen
paperback
forgiving
moynihan
ying
teet
commend
airasia
ava
snar
activate
ceased
illegit
willy
nonexist
compromising
##locked
##inian
##alla
optical
lifestyles
sponsoring
choreographer
##lib
altr
relocation
memes
radcliffe
psyche
superiority
hoc
wei
arpa
mona
footed
fragmented
somm
##ansa
kinder
roundtable
lewd
exceedingly
revolving
intervening
whiff
whipping
unapolog
bodyguard
spotting
bashir
##iably
##oki
afters
differing
reviewer
reintrod
longh
coding
vividly
bestselling
hose
pren
acl
persists
ticker
anthrax
xx
shattering
unto
doctorate
scotch
huddle
tissues
pummel
microwave
xlv
whining
mujah
fuj
reopening
reconnaissance
##du
##abel
campaigner
juices
extracted
occupational
fledged
##mere
schuster
piggy
lacrosse
##adata
atom
abut
syed
unscr
misplaced
##ileen
154
##ecki
peacekeeping
furnishings
shabaab
edelman
matrix
smuggled
hysterical
guitars
gyl
barra
mobilize
##birds
##ublish
peeled
paige
lodged
gosling
hopped
zaw
##inand
combative
driverless
sacrificing
grooming
bandwagon
perverse
rikers
ea
##etric
photojournal
177
raven
slugger
rf
##actable
surchar
enclosed
unlocked
fetish
patchwork
kelsey
whirlwind
slovenia
kron
biogen
buzzer
burgundy
##olet
##usional
armani
moj
comprehend
nuis
goddess
indispensable
##zon
reside
chattanooga
orwell
insom
hamlin
wilmington
gilded
incend
demint
mole
seamlessly
dashed
riffs
perk
clears
chicks
professions
streamlined
flamboyant
jeremiah
lorr
wad
zo
##atts
chores
unass
intertw
condom
mentoring
groove
sinks
impassion
##hness
louie
grads
bidder
exchanging
ayou
clifford
pandemic
throttle
ritch
hermes
[...]
